<unk>	0
<s>	0
</s>	0
<pad>	0
en	-0
er	-1
in	-2
ch	-3
▁d	-4
▁a	-5
▁t	-6
es	-7
on	-8
un	-9
▁s	-10
is	-11
it	-12
an	-13
▁th	-14
ie	-15
▁w	-16
at	-17
re	-18
or	-19
al	-20
▁the	-21
▁b	-22
▁e	-23
▁in	-24
ar	-25
ich	-26
as	-27
▁m	-28
▁f	-29
▁o	-30
te	-31
le	-32
▁p	-33
ion	-34
ro	-35
▁h	-36
▁c	-37
▁an	-38
us	-39
▁n	-40
▁un	-41
ge	-42
▁die	-43
ung	-44
ent	-45
ing	-46
▁A	-47
▁v	-48
▁der	-49
ll	-50
ed	-51
ig	-52
▁of	-53
▁S	-54
ur	-55
ic	-56
st	-57
▁to	-58
▁z	-59
▁und	-60
▁E	-61
▁ein	-62
▁and	-63
el	-64
▁g	-65
om	-66
ut	-67
▁be	-68
ol	-69
▁I	-70
ten	-71
im	-72
ter	-73
▁D	-74
▁B	-75
der	-76
▁is	-77
ra	-78
em	-79
▁W	-80
ir	-81
▁M	-82
eit	-83
▁T	-84
il	-85
sch	-86
hr	-87
▁re	-88
▁l	-89
isch	-90
den	-91
▁P	-92
ation	-93
▁zu	-94
▁G	-95
lich	-96
de	-97
ies	-98
ul	-99
▁R	-100
iv	-101
▁F	-102
▁k	-103
▁K	-104
am	-105
uf	-106
▁U	-107
um	-108
et	-109
ber	-110
ier	-111
▁das	-112
and	-113
ein	-114
icht	-115
gen	-116
ly	-117
ab	-118
ür	-119
▁den	-120
est	-121
ach	-122
▁that	-123
▁r	-124
ver	-125
▁In	-126
tr	-127
ess	-128
▁V	-129
ct	-130
▁L	-131
▁–	-132
ot	-133
▁al	-134
▁C	-135
ik	-136
ce	-137
ow	-138
▁ver	-139
▁ge	-140
id	-141
▁for	-142
her	-143
▁er	-144
he	-145
af	-146
▁im	-147
os	-148
▁H	-149
▁N	-150
▁von	-151
uch	-152
men	-153
ill	-154
kt	-155
▁st	-156
▁de	-157
ischen	-158
▁auf	-159
▁on	-160
▁it	-161
▁so	-162
ist	-163
▁pro	-164
än	-165
▁ist	-166
▁J	-167
▁i	-168
▁co	-169
▁wh	-170
uro	-171
▁ne	-172
▁des	-173
ate	-174
pe	-175
▁Z	-176
ff	-177
ungen	-178
▁sich	-179
ts	-180
▁als	-181
▁con	-182
▁Ver	-183
ien	-184
ad	-185
mer	-186
▁Re	-187
ment	-188
ck	-189
▁le	-190
▁as	-191
ah	-192
▁eine	-193
ere	-194
av	-195
▁für	-196
▁dass	-197
ap	-198
▁nicht	-199
olit	-200
▁wir	-201
▁dem	-202
ore	-203
schaf	-204
ith	-205
ial	-206
ind	-207
up	-208
ort	-209
▁An	-210
op	-211
▁dies	-212
▁Un	-213
end	-214
▁ex	-215
▁The	-216
ste	-217
ay	-218
ben	-219
▁j	-220
sen	-221
eh	-222
we	-223
ity	-224
iz	-225
▁St	-226
uld	-227
über	-228
▁Euro	-229
igen	-230
und	-231
ak	-232
▁with	-233
▁O	-234
▁mit	-235
ische	-236
ive	-237
▁1	-238
ahr	-239
▁are	-240
tern	-241
▁se	-242
ers	-243
▁Die	-244
▁es	-245
▁aus	-246
▁sch	-247
ug	-248
▁Ch	-249
▁not	-250
och	-251
▁2	-252
uss	-253
iel	-254
ain	-255
▁US	-256
ib	-257
ank	-258
▁sein	-259
th	-260
aus	-261
lo	-262
con	-263
se	-264
qu	-265
ub	-266
ang	-267
▁ab	-268
▁we	-269
▁com	-270
ann	-271
▁um	-272
ht	-273
ise	-274
▁wer	-275
▁by	-276
▁über	-277
ungs	-278
tz	-279
00	-280
ave	-281
▁sie	-282
ag	-283
art	-284
ational	-285
är	-286
▁Sch	-287
▁wie	-288
▁werden	-289
▁all	-290
schaft	-291
if	-292
hen	-293
▁was	-294
ern	-295
▁has	-296
▁(	-297
▁pr	-298
▁me	-299
elt	-300
▁wo	-301
▁have	-302
enn	-303
inan	-304
ans	-305
for	-306
all	-307
ia	-308
▁man	-309
ions	-310
▁will	-311
▁wor	-312
▁hat	-313
▁Chin	-314
▁ch	-315
urch	-316
▁polit	-317
rom	-318
ant	-319
dern	-320
ost	-321
conom	-322
▁sh	-323
▁Ein	-324
▁or	-325
▁war	-326
ted	-327
▁क	-328
over	-329
▁coun	-330
▁En	-331
du	-332
▁at	-333
heit	-334
ast	-335
ip	-336
▁sind	-337
ige	-338
ön	-339
la	-340
ust	-341
gr	-342
ical	-343
keit	-344
ure	-345
▁gro	-346
▁Be	-347
▁Er	-348
▁its	-349
▁einer	-350
▁econom	-351
▁vor	-352
▁countr	-353
aben	-354
nen	-355
pr	-356
▁he	-357
od	-358
▁y	-359
▁en	-360
ne	-361
▁Pro	-362
▁wird	-363
esch	-364
hal	-365
▁from	-366
▁ih	-367
lichen	-368
ud	-369
ieren	-370
llen	-371
▁kön	-372
etz	-373
▁Jahr	-374
▁their	-375
rit	-376
▁“	-377
▁Ar	-378
▁res	-379
▁ent	-380
ong	-381
ühr	-382
ue	-383
ark	-384
ome	-385
▁auch	-386
age	-387
bal	-388
▁more	-389
ens	-390
fl	-391
me	-392
▁Reg	-393
▁Ge	-394
oll	-395
ick	-396
og	-397
ld	-398
ous	-399
ät	-400
▁China	-401
ese	-402
▁Th	-403
▁durch	-404
aat	-405
ition	-406
▁„	-407
ierung	-408
▁Europe	-409
▁19	-410
▁zur	-411
ert	-412
lobal	-413
hl	-414
ok	-415
ähr	-416
rie	-417
ft	-418
ism	-419
ident	-420
out	-421
liche	-422
eren	-423
oc	-424
▁haben	-425
ear	-426
▁Amer	-427
▁inc	-428
irt	-429
ult	-430
ass	-431
land	-432
▁bei	-433
ary	-434
▁But	-435
red	-436
ther	-437
port	-438
▁Pr	-439
ign	-440
ard	-441
ün	-442
▁this	-443
ms	-444
ations	-445
rat	-446
▁unter	-447
äch	-448
cial	-449
▁oder	-450
overn	-451
tw	-452
▁ste	-453
be	-454
sp	-455
fen	-456
▁ihr	-457
ile	-458
▁Aus	-459
▁tr	-460
▁would	-461
▁str	-462
pt	-463
ian	-464
▁nach	-465
ran	-466
▁einen	-467
cc	-468
▁global	-469
▁they	-470
iger	-471
ble	-472
▁govern	-473
▁ihre	-474
lie	-475
one	-476
▁fa	-477
zu	-478
▁ad	-479
sten	-480
ine	-481
iert	-482
fr	-483
reat	-484
ze	-485
ilit	-486
vest	-487
▁countries	-488
able	-489
ges	-490
ely	-491
▁but	-492
änder	-493
ommen	-494
▁sp	-495
au	-496
ahl	-497
beit	-498
ven	-499
▁Welt	-500
▁than	-501
▁ag	-502
ime	-503
▁wur	-504
yste	-505
▁200	-506
▁reg	-507
▁do	-508
▁which	-509
ates	-510
▁dar	-511
ution	-512
ternational	-513
ose	-514
ren	-515
▁Russ	-516
igkeit	-517
▁einem	-518
ov	-519
inanz	-520
▁government	-521
▁zw	-522
tra	-523
▁can	-524
▁weit	-525
▁world	-526
ück	-527
▁Le	-528
▁Kon	-529
pro	-530
iss	-531
▁gegen	-532
ger	-533
▁comp	-534
olic	-535
ute	-536
vel	-537
▁De	-538
ange	-539
▁gen	-540
schen	-541
erv	-542
▁Europ	-543
▁diese	-544
olitik	-545
▁Is	-546
▁rec	-547
äs	-548
▁di	-549
mp	-550
ight	-551
▁As	-552
▁year	-553
ors	-554
ction	-555
▁bec	-556
igh	-557
cht	-558
wo	-559
▁nur	-560
▁स	-561
ance	-562
▁noch	-563
▁ar	-564
our	-565
chen	-566
▁been	-567
wer	-568
ord	-569
ders	-570
cy	-571
▁also	-572
▁pe	-573
▁EU	-574
▁mehr	-575
▁other	-576
gan	-577
▁tra	-578
▁Americ	-579
▁da	-580
ugh	-581
form	-582
▁dis	-583
▁part	-584
ack	-585
▁polic	-586
ör	-587
▁exp	-588
zen	-589
▁Staat	-590
ated	-591
▁am	-592
ces	-593
▁We	-594
▁20	-595
▁kein	-596
ßen	-597
ehmen	-598
▁Ind	-599
entr	-600
▁international	-601
▁grow	-602
▁economic	-603
▁Men	-604
lim	-605
inis	-606
ower	-607
here	-608
▁wür	-609
ital	-610
leich	-611
stit	-612
▁wenn	-613
▁out	-614
amp	-615
ru	-616
tel	-617
ide	-618
▁bes	-619
▁new	-620
ual	-621
▁könn	-622
▁soll	-623
gt	-624
reich	-625
▁per	-626
▁Ab	-627
▁USA	-628
▁ind	-629
▁Der	-630
ionen	-631
▁inter	-632
üs	-633
▁uns	-634
▁dec	-635
▁Gr	-636
▁Land	-637
isten	-638
ubl	-639
▁Mit	-640
auf	-641
▁viel	-642
ks	-643
andel	-644
ob	-645
ect	-646
▁ह	-647
▁sho	-648
teil	-649
bar	-650
▁over	-651
ikan	-652
▁Vor	-653
▁Dies	-654
▁bet	-655
▁one	-656
acht	-657
hn	-658
are	-659
olog	-660
▁finan	-661
▁aber	-662
▁op	-663
ris	-664
arket	-665
ei	-666
ings	-667
▁eff	-668
▁gr	-669
ish	-670
mit	-671
▁Das	-672
vent	-673
uen	-674
▁Auf	-675
ög	-676
▁ap	-677
▁rel	-678
ite	-679
▁us	-680
▁only	-681
▁off	-682
▁political	-683
▁imp	-684
▁kann	-685
fol	-686
ystem	-687
▁Al	-688
▁zum	-689
▁sup	-690
ree	-691
ring	-692
▁te	-693
▁Menschen	-694
▁Wirt	-695
ake	-696
▁hin	-697
▁who	-698
ced	-699
led	-700
nis	-701
▁For	-702
▁können	-703
ändern	-704
ärk	-705
▁about	-706
▁gew	-707
omm	-708
▁ob	-709
▁cont	-710
apital	-711
tet	-712
▁-	-713
▁should	-714
▁Finanz	-715
▁It	-716
▁no	-717
▁his	-718
iven	-719
ility	-720
to	-721
ame	-722
ild	-723
man	-724
▁ber	-725
▁pre	-726
ons	-727
los	-728
assen	-729
ase	-730
▁pl	-731
rael	-732
▁alle	-733
ative	-734
kommen	-735
ied	-736
ner	-737
ütz	-738
▁euro	-739
apan	-740
▁dieser	-741
▁lik	-742
ischer	-743
velop	-744
achst	-745
▁qu	-746
ople	-747
ene	-748
nah	-749
mal	-750
▁need	-751
weise	-752
erg	-753
▁Sp	-754
▁jed	-755
ds	-756
▁Bank	-757
chn	-758
ität	-759
achstum	-760
ause	-761
ickl	-762
▁such	-763
▁wurde	-764
▁were	-765
icher	-766
▁now	-767
▁market	-768
eral	-769
▁Arbeit	-770
▁ma	-771
err	-772
▁most	-773
▁Te	-774
ibt	-775
▁Se	-776
bst	-777
licher	-778
oun	-779
entral	-780
iele	-781
▁there	-782
▁ra	-783
ious	-784
▁real	-785
ice	-786
▁So	-787
▁Zeit	-788
▁national	-789
▁ro	-790
▁growth	-791
▁Entw	-792
ateg	-793
rei	-794
▁people	-795
▁eines	-796
▁could	-797
▁long	-798
▁Es	-799
äsident	-800
▁Y	-801
▁Ob	-802
ient	-803
ve	-804
▁invest	-805
ood	-806
▁seine	-807
ats	-808
elbst	-809
gel	-810
▁if	-811
äl	-812
ollar	-813
▁even	-814
▁müs	-815
▁Entwickl	-816
▁wen	-817
ublic	-818
geb	-819
▁European	-820
lear	-821
halten	-822
essen	-823
▁under	-824
▁years	-825
▁acc	-826
▁Unter	-827
▁म	-828
▁po	-829
▁develop	-830
ke	-831
alt	-832
▁sol	-833
▁cons	-834
ited	-835
lichkeit	-836
▁financial	-837
▁ins	-838
▁This	-839
gra	-840
lam	-841
schafts	-842
▁ris	-843
▁Länder	-844
▁Israel	-845
▁Um	-846
weit	-847
▁würde	-848
bt	-849
▁up	-850
vol	-851
▁country	-852
▁zwischen	-853
ict	-854
▁power	-855
▁bank	-856
▁policy	-857
ew	-858
▁Japan	-859
▁cur	-860
▁Fra	-861
▁kon	-862
▁incre	-863
▁Regierung	-864
änd	-865
okrat	-866
▁ges	-867
ken	-868
ismus	-869
▁rem	-870
ember	-871
▁many	-872
▁some	-873
ush	-874
▁Ü	-875
pos	-876
▁प	-877
▁bis	-878
ustr	-879
inister	-880
▁when	-881
etzt	-882
ätz	-883
öß	-884
▁Politik	-885
aw	-886
igt	-887
uer	-888
stand	-889
▁könnte	-890
ire	-891
arge	-892
▁Jahren	-893
sche	-894
▁Par	-895
▁Mill	-896
▁these	-897
tre	-898
▁Über	-899
▁Im	-900
▁def	-901
ider	-902
▁201	-903
ede	-904
▁ass	-905
ents	-906
ities	-907
▁may	-908
▁pos	-909
▁Nach	-910
▁produ	-911
uk	-912
▁Ges	-913
own	-914
dem	-915
führ	-916
ession	-917
unkt	-918
che	-919
▁must	-920
atz	-921
lin	-922
aß	-923
aten	-924
▁Doch	-925
pen	-926
▁müssen	-927
▁Kr	-928
▁Aber	-929
eld	-930
upt	-931
▁into	-932
ammen	-933
▁weiter	-934
äre	-935
ffent	-936
▁economy	-937
ory	-938
▁führ	-939
sicht	-940
blem	-941
▁letz	-942
▁what	-943
▁Ger	-944
ac	-945
esident	-946
▁lea	-947
▁wirt	-948
iet	-949
hin	-950
▁milit	-951
▁dam	-952
▁Ö	-953
▁cris	-954
imm	-955
fer	-956
▁Ira	-957
ährend	-958
usammen	-959
▁diff	-960
▁के	-961
▁ihrer	-962
fter	-963
▁how	-964
pl	-965
urs	-966
▁Me	-967
▁comm	-968
▁wirtschaft	-969
▁ele	-970
kl	-971
cess	-972
▁fir	-973
▁much	-974
▁her	-975
ices	-976
stitution	-977
▁Dem	-978
▁work	-979
▁immer	-980
▁Iran	-981
▁had	-982
anz	-983
▁time	-984
iden	-985
▁America	-986
issen	-987
kr	-988
äng	-989
▁wieder	-990
▁199	-991
▁them	-992
▁any	-993
old	-994
▁Präsident	-995
ible	-996
▁3	-997
por	-998
pre	-999
▁again	-1000
wirt	-1001
uß	-1002
▁keine	-1003
zeit	-1004
illion	-1005
inn	-1006
bens	-1007
its	-1008
▁Europa	-1009
्र	-1010
ular	-1011
▁because	-1012
▁public	-1013
▁ö	-1014
▁etw	-1015
zie	-1016
stütz	-1017
off	-1018
▁है	-1019
urn	-1020
ize	-1021
ines	-1022
▁Wachstum	-1023
ists	-1024
▁best	-1025
▁bef	-1026
fü	-1027
ett	-1028
per	-1029
mein	-1030
akt	-1031
▁Verb	-1032
▁anderen	-1033
oth	-1034
kon	-1035
▁sc	-1036
▁mon	-1037
fe	-1038
▁Russia	-1039
allen	-1040
ों	-1041
▁Sie	-1042
▁andere	-1043
▁act	-1044
att	-1045
▁trans	-1046
▁Und	-1047
ays	-1048
ins	-1049
▁crisis	-1050
ale	-1051
ationen	-1052
achen	-1053
cted	-1054
hne	-1055
▁größ	-1056
▁end	-1057
ues	-1058
▁lie	-1059
icherheit	-1060
redit	-1061
▁Tr	-1062
ating	-1063
▁son	-1064
iff	-1065
ahre	-1066
wn	-1067
▁interest	-1068
istan	-1069
▁prov	-1070
olle	-1071
arkt	-1072
▁sow	-1073
▁hel	-1074
ika	-1075
ough	-1076
▁high	-1077
▁Ste	-1078
ween	-1079
▁system	-1080
flation	-1081
ें	-1082
als	-1083
▁priv	-1084
▁verb	-1085
▁Invest	-1086
▁selbst	-1087
ternehmen	-1088
hip	-1089
▁muss	-1090
schein	-1091
▁leaders	-1092
ization	-1093
▁wicht	-1094
▁Wirtschafts	-1095
▁between	-1096
ives	-1097
▁well	-1098
chnolog	-1099
▁Ex	-1100
▁two	-1101
60	-1102
▁gibt	-1103
ama	-1104
▁bel	-1105
▁sec	-1106
erung	-1107
llt	-1108
▁Russland	-1109
ende	-1110
igung	-1111
ös	-1112
▁wurden	-1113
rab	-1114
nahmen	-1115
zial	-1116
▁lang	-1117
▁Ländern	-1118
▁like	-1119
▁At	-1120
▁region	-1121
ार	-1122
▁spe	-1123
▁democ	-1124
▁अ	-1125
▁ज	-1126
ierte	-1127
▁schw	-1128
such	-1129
elf	-1130
itt	-1131
▁einz	-1132
par	-1133
▁Man	-1134
ächlich	-1135
pä	-1136
ler	-1137
▁seiner	-1138
▁Wh	-1139
▁beg	-1140
bank	-1141
act	-1142
error	-1143
dition	-1144
▁sub	-1145
äh	-1146
ments	-1147
▁groß	-1148
str	-1149
ics	-1150
ax	-1151
▁beste	-1152
▁aller	-1153
▁just	-1154
oren	-1155
ful	-1156
gew	-1157
▁ger	-1158
rieg	-1159
▁ever	-1160
forder	-1161
rol	-1162
▁Grund	-1163
chte	-1164
ific	-1165
▁bereit	-1166
▁import	-1167
ohl	-1168
ehn	-1169
fahr	-1170
▁sollte	-1171
iber	-1172
▁Ent	-1173
▁those	-1174
ement	-1175
han	-1176
),	-1177
▁recent	-1178
az	-1179
▁Wes	-1180
isp	-1181
ail	-1182
fte	-1183
▁redu	-1184
gend	-1185
affen	-1186
▁Regier	-1187
▁remain	-1188
▁ke	-1189
ivers	-1190
enden	-1191
ater	-1192
ural	-1193
▁increas	-1194
▁Jahre	-1195
▁fr	-1196
io	-1197
▁sondern	-1198
pect	-1199
ierten	-1200
lei	-1201
▁zwe	-1202
zone	-1203
▁United	-1204
▁He	-1205
▁Or	-1206
deed	-1207
▁less	-1208
alth	-1209
hö	-1210
ace	-1211
▁gesch	-1212
ktiv	-1213
▁ihren	-1214
ehen	-1215
▁lo	-1216
▁Gro	-1217
▁व	-1218
▁Wenn	-1219
▁politischen	-1220
▁ter	-1221
ath	-1222
gar	-1223
▁fore	-1224
▁sur	-1225
▁far	-1226
sam	-1227
▁bo	-1228
gress	-1229
▁5	-1230
▁fact	-1231
glie	-1232
▁viele	-1233
ians	-1234
▁ho	-1235
▁waren	-1236
ward	-1237
uman	-1238
cing	-1239
िक	-1240
utz	-1241
▁Tats	-1242
▁dazu	-1243
▁pop	-1244
▁Inter	-1245
▁dr	-1246
▁debt	-1247
loy	-1248
uring	-1249
halb	-1250
▁And	-1251
ters	-1252
yr	-1253
gram	-1254
▁Afr	-1255
▁sim	-1256
▁Dollar	-1257
▁su	-1258
rent	-1259
▁incl	-1260
ond	-1261
ures	-1262
kra	-1263
▁beh	-1264
inden	-1265
legen	-1266
ने	-1267
▁aut	-1268
ized	-1269
▁neue	-1270
elle	-1271
▁letzten	-1272
rauch	-1273
ade	-1274
▁Gesch	-1275
▁against	-1276
term	-1277
▁member	-1278
▁contin	-1279
cal	-1280
▁Union	-1281
▁während	-1282
▁Pre	-1283
ichts	-1284
▁Bush	-1285
▁Fr	-1286
▁our	-1287
gest	-1288
▁state	-1289
▁first	-1290
hungen	-1291
öl	-1292
politik	-1293
▁europä	-1294
ament	-1295
▁leg	-1296
▁Put	-1297
under	-1298
▁Str	-1299
▁fre	-1300
्य	-1301
▁ल	-1302
rough	-1303
geben	-1304
▁Diese	-1305
▁verl	-1306
▁after	-1307
ability	-1308
▁hal	-1309
ließ	-1310
ichte	-1311
▁Staaten	-1312
▁Obama	-1313
▁Führ	-1314
▁change	-1315
▁4	-1316
omp	-1317
▁German	-1318
urity	-1319
▁effect	-1320
▁öffent	-1321
▁wäre	-1322
ußer	-1323
ally	-1324
dr	-1325
▁hö	-1326
▁while	-1327
ince	-1328
merikan	-1329
▁Pal	-1330
ull	-1331
▁way	-1332
osten	-1333
gleich	-1334
les	-1335
▁own	-1336
▁emp	-1337
ting	-1338
▁zurück	-1339
▁par	-1340
▁Proz	-1341
ink	-1342
etzen	-1343
▁both	-1344
▁damit	-1345
ält	-1346
▁Wahl	-1347
▁ac	-1348
reit	-1349
▁politische	-1350
▁versch	-1351
▁amerikan	-1352
▁Sicherheit	-1353
▁"	-1354
▁vom	-1355
▁kn	-1356
imes	-1357
▁seem	-1358
br	-1359
▁great	-1360
grund	-1361
kte	-1362
satz	-1363
▁Wir	-1364
▁large	-1365
▁Haus	-1366
▁Ber	-1367
ium	-1368
▁$	-1369
yn	-1370
folg	-1371
▁Macht	-1372
▁strateg	-1373
dings	-1374
▁ब	-1375
▁conc	-1376
▁diesem	-1377
▁cost	-1378
▁besch	-1379
▁resp	-1380
zahl	-1381
▁Europä	-1382
▁Teil	-1383
▁Eine	-1384
isierung	-1385
jor	-1386
urz	-1387
wirtschaft	-1388
wir	-1389
▁sign	-1390
▁current	-1391
schaften	-1392
volution	-1393
▁ref	-1394
ulden	-1395
▁support	-1396
frist	-1397
▁tax	-1398
ior	-1399
▁sollten	-1400
▁weil	-1401
▁Wie	-1402
▁bring	-1403
▁jedoch	-1404
schl	-1405
▁ret	-1406
▁help	-1407
ähl	-1408
▁Unternehmen	-1409
hol	-1410
zus	-1411
▁ir	-1412
▁Maß	-1413
▁में	-1414
ep	-1415
▁fund	-1416
alls	-1417
ont	-1418
▁where	-1419
▁seit	-1420
ash	-1421
▁go	-1422
eln	-1423
▁hist	-1424
▁mo	-1425
iar	-1426
▁ohne	-1427
haf	-1428
orts	-1429
▁capital	-1430
▁markets	-1431
eng	-1432
▁weniger	-1433
▁Arbeits	-1434
▁too	-1435
▁dire	-1436
▁requ	-1437
▁Verein	-1438
igten	-1439
▁risk	-1440
▁major	-1441
▁Her	-1442
▁Geld	-1443
omen	-1444
ically	-1445
ai	-1446
eration	-1447
▁Demokrat	-1448
itä	-1449
ision	-1450
rag	-1451
▁Wirtschaft	-1452
▁All	-1453
▁Gen	-1454
▁examp	-1455
▁rest	-1456
halt	-1457
▁make	-1458
det	-1459
itionen	-1460
▁entw	-1461
▁adv	-1462
▁Ä	-1463
int	-1464
orr	-1465
äuf	-1466
gehen	-1467
▁human	-1468
▁eigen	-1469
esell	-1470
utions	-1471
ential	-1472
ispiel	-1473
▁American	-1474
▁Handel	-1475
aking	-1476
▁good	-1477
▁important	-1478
▁pers	-1479
▁fe	-1480
▁Bed	-1481
ulation	-1482
ument	-1483
vor	-1484
yp	-1485
▁become	-1486
esen	-1487
gangen	-1488
ichten	-1489
edeut	-1490
scheid	-1491
isen	-1492
▁arg	-1493
arbeit	-1494
ktur	-1495
▁Ne	-1496
ölk	-1497
▁bas	-1498
▁last	-1499
▁War	-1500
uct	-1501
day	-1502
▁welt	-1503
itions	-1504
▁military	-1505
lex	-1506
ather	-1507
▁If	-1508
▁dom	-1509
▁through	-1510
war	-1511
▁heute	-1512
tegr	-1513
uc	-1514
▁Staats	-1515
ily	-1516
agen	-1517
kenn	-1518
ission	-1519
▁UN	-1520
▁cour	-1521
ivil	-1522
▁ange	-1523
000	-1524
▁neg	-1525
stell	-1526
▁Q	-1527
TO	-1528
▁social	-1529
▁ide	-1530
wohl	-1531
▁द	-1532
read	-1533
▁Indeed	-1534
ject	-1535
▁fis	-1536
rechen	-1537
▁mög	-1538
fra	-1539
▁Entwicklung	-1540
gung	-1541
▁nat	-1542
erer	-1543
▁foreign	-1544
▁att	-1545
▁Vol	-1546
▁denen	-1547
▁dieses	-1548
cept	-1549
▁Islam	-1550
▁em	-1551
ache	-1552
▁stark	-1553
ichen	-1554
unden	-1555
▁zwei	-1556
▁partic	-1557
▁Zusammen	-1558
▁Energ	-1559
▁does	-1560
ph	-1561
▁Produ	-1562
xt	-1563
▁entsch	-1564
▁example	-1565
vers	-1566
ending	-1567
ou	-1568
िय	-1569
▁President	-1570
▁Pl	-1571
häng	-1572
▁banks	-1573
▁iss	-1574
▁hät	-1575
0%	-1576
iew	-1577
▁könnten	-1578
▁Br	-1579
▁bu	-1580
ommun	-1581
▁etwa	-1582
chten	-1583
ply	-1584
▁Groß	-1585
wend	-1586
▁gef	-1587
▁prom	-1588
ys	-1589
▁deut	-1590
▁Gew	-1591
▁demand	-1592
other	-1593
▁neuen	-1594
▁cl	-1595
▁trade	-1596
▁Mon	-1597
▁prof	-1598
▁get	-1599
ären	-1600
oss	-1601
kungen	-1602
▁Putin	-1603
▁fut	-1604
ahrschein	-1605
onder	-1606
ged	-1607
▁schein	-1608
▁Fran	-1609
▁Wor	-1610
ctor	-1611
▁main	-1612
▁governments	-1613
▁Ris	-1614
▁every	-1615
▁rates	-1616
gesch	-1617
ander	-1618
▁weltweit	-1619
▁darauf	-1620
andl	-1621
▁serv	-1622
ss	-1623
▁still	-1624
unehmen	-1625
abe	-1626
▁result	-1627
vention	-1628
▁würden	-1629
tens	-1630
▁Am	-1631
▁Währ	-1632
▁back	-1633
▁Entwicklungs	-1634
abl	-1635
▁diesen	-1636
sel	-1637
▁Regierungen	-1638
ging	-1639
lagen	-1640
▁see	-1641
▁Iraq	-1642
▁belie	-1643
▁today	-1644
▁gegenüber	-1645
abei	-1646
▁tro	-1647
staat	-1648
▁stand	-1649
▁includ	-1650
▁ä	-1651
alen	-1652
▁Deut	-1653
ually	-1654
▁mov	-1655
DP	-1656
▁gleich	-1657
▁Entscheid	-1658
ruck	-1659
▁bene	-1660
▁meisten	-1661
▁States	-1662
▁That	-1663
▁Mitglie	-1664
ty	-1665
▁Kapital	-1666
mut	-1667
▁chines	-1668
▁future	-1669
▁energ	-1670
itu	-1671
▁emer	-1672
▁might	-1673
▁val	-1674
▁est	-1675
ages	-1676
▁same	-1677
▁Landes	-1678
ativ	-1679
▁sehr	-1680
ipl	-1681
arly	-1682
▁policies	-1683
▁appro	-1684
▁Risik	-1685
▁Syr	-1686
▁ich	-1687
mittel	-1688
uclear	-1689
▁198	-1690
uge	-1691
bes	-1692
ock	-1693
▁nun	-1694
gang	-1695
▁Fed	-1696
▁Banken	-1697
▁की	-1698
▁Parte	-1699
▁Proble	-1700
gaben	-1701
hung	-1702
▁med	-1703
tem	-1704
afür	-1705
abilit	-1706
▁being	-1707
▁right	-1708
▁investment	-1709
nung	-1710
ound	-1711
▁More	-1712
▁न	-1713
▁disc	-1714
▁sogar	-1715
▁problem	-1716
ivid	-1717
▁gut	-1718
▁men	-1719
eth	-1720
icult	-1721
low	-1722
▁sm	-1723
▁Med	-1724
▁benef	-1725
ught	-1726
inder	-1727
eiden	-1728
▁Krise	-1729
ined	-1730
▁कर	-1731
▁औ	-1732
▁clear	-1733
völk	-1734
ließlich	-1735
▁dav	-1736
▁commun	-1737
ately	-1738
▁down	-1739
racy	-1740
▁Part	-1741
▁fiscal	-1742
ffen	-1743
&#	-1744
▁allerdings	-1745
zehn	-1746
iness	-1747
▁Schulden	-1748
▁mass	-1749
▁entwick	-1750
▁Hin	-1751
▁did	-1752
▁private	-1753
▁machen	-1754
160	-1755
▁Ukra	-1756
▁nie	-1757
▁Seit	-1758
▁gemein	-1759
esent	-1760
ateral	-1761
▁dafür	-1762
▁succ	-1763
र्	-1764
▁और	-1765
▁nor	-1766
▁Unterstütz	-1767
hor	-1768
ury	-1769
▁Germany	-1770
loyment	-1771
round	-1772
fung	-1773
wor	-1774
▁Milliar	-1775
ता	-1776
▁lead	-1777
ights	-1778
▁strong	-1779
▁without	-1780
fg	-1781
onds	-1782
▁Arab	-1783
▁उ	-1784
▁likely	-1785
▁use	-1786
▁Art	-1787
▁equ	-1788
▁dann	-1789
inistr	-1790
▁prices	-1791
▁gel	-1792
ably	-1793
amer	-1794
ness	-1795
rieden	-1796
▁Chinese	-1797
▁since	-1798
,”	-1799
ktion	-1800
▁Gegen	-1801
ife	-1802
zug	-1803
▁contr	-1804
▁Haushal	-1805
wort	-1806
ton	-1807
▁level	-1808
▁sowie	-1809
▁Bere	-1810
▁derart	-1811
▁cann	-1812
▁hatte	-1813
ärkte	-1814
▁ant	-1815
wert	-1816
▁rate	-1817
▁technolog	-1818
ingly	-1819
schland	-1820
▁hand	-1821
▁el	-1822
▁led	-1823
▁Markt	-1824
▁einf	-1825
▁Mus	-1826
▁erst	-1827
▁र	-1828
▁bess	-1829
mög	-1830
ote	-1831
▁West	-1832
ctions	-1833
angen	-1834
▁Rück	-1835
▁finanz	-1836
ständ	-1837
ved	-1838
minister	-1839
ount	-1840
ilien	-1841
▁Tatsächlich	-1842
orea	-1843
▁stärk	-1844
▁law	-1845
med	-1846
aut	-1847
▁development	-1848
▁Krieg	-1849
▁reas	-1850
ähigkeit	-1851
▁nuclear	-1852
▁ann	-1853
ets	-1854
▁poss	-1855
▁poor	-1856
ratic	-1857
reichen	-1858
▁kl	-1859
formen	-1860
▁cent	-1861
icial	-1862
▁cannot	-1863
leicht	-1864
▁ihnen	-1865
ritt	-1866
▁India	-1867
heiten	-1868
▁seinen	-1869
gesichts	-1870
aupt	-1871
&#160	-1872
ves	-1873
ämp	-1874
▁made	-1875
▁cap	-1876
row	-1877
ying	-1878
▁take	-1879
▁Millionen	-1880
wär	-1881
▁Afric	-1882
▁success	-1883
▁security	-1884
▁threat	-1885
▁Deutschland	-1886
ganis	-1887
akistan	-1888
ilateral	-1889
▁Frage	-1890
bs	-1891
▁führen	-1892
▁bereits	-1893
üd	-1894
aid	-1895
nahme	-1896
▁challen	-1897
▁energy	-1898
ever	-1899
▁Unterstützung	-1900
▁Problem	-1901
▁economies	-1902
▁davon	-1903
ertain	-1904
etary	-1905
fghan	-1906
nisse	-1907
▁Chinas	-1908
▁sen	-1909
iti	-1910
▁bro	-1911
IP	-1912
üng	-1913
orth	-1914
▁को	-1915
▁modern	-1916
▁Con	-1917
▁short	-1918
▁dabei	-1919
▁states	-1920
▁Milliarden	-1921
aps	-1922
▁Brit	-1923
fiz	-1924
rop	-1925
unft	-1926
▁Indien	-1927
iqu	-1928
▁%	-1929
▁quest	-1930
▁reform	-1931
stin	-1932
▁Schw	-1933
ollow	-1934
els	-1935
abil	-1936
▁industr	-1937
▁know	-1938
undheit	-1939
esellschaft	-1940
▁There	-1941
lage	-1942
▁bed	-1943
▁order	-1944
oten	-1945
oral	-1946
arm	-1947
▁Irak	-1948
ether	-1949
▁then	-1950
▁lassen	-1951
▁Res	-1952
▁course	-1953
▁members	-1954
rän	-1955
▁prote	-1956
▁soc	-1957
licht	-1958
ministr	-1959
▁eng	-1960
▁Ende	-1961
▁billion	-1962
usiness	-1963
ieg	-1964
cen	-1965
▁Tur	-1966
▁They	-1967
astr	-1968
▁ausge	-1969
pf	-1970
antwort	-1971
▁Minister	-1972
▁better	-1973
abor	-1974
konom	-1975
▁7	-1976
äß	-1977
äft	-1978
▁Als	-1979
▁Kont	-1980
▁großen	-1981
▁से	-1982
reif	-1983
▁turn	-1984
▁Bes	-1985
▁Ukraine	-1986
▁pra	-1987
rech	-1988
▁jetzt	-1989
▁bal	-1990
iplom	-1991
▁Bür	-1992
äd	-1993
▁Kredit	-1994
▁wichtig	-1995
▁president	-1996
20	-1997
▁hig	-1998
▁Jahrzehn	-1999
▁ser	-2000
▁Mittel	-2001
▁bor	-2002
▁health	-2003
▁ze	-2004
iberal	-2005
▁past	-2006
inc	-2007
ystems	-2008
hunder	-2009
cond	-2010
rem	-2011
▁car	-2012
▁Maßnahmen	-2013
▁On	-2014
▁oil	-2015
▁globalen	-2016
▁central	-2017
klär	-2018
länder	-2019
▁very	-2020
▁process	-2021
▁इ	-2022
▁Fol	-2023
▁low	-2024
ächt	-2025
▁including	-2026
▁Frank	-2027
ätze	-2028
kann	-2029
▁europäischen	-2030
äm	-2031
▁Da	-2032
ret	-2033
zeich	-2034
aly	-2035
uktur	-2036
▁doch	-2037
▁dra	-2038
▁instit	-2039
▁besteht	-2040
▁Prozent	-2041
emp	-2042
nov	-2043
udge	-2044
▁agre	-2045
▁gest	-2046
▁GDP	-2047
▁Zentral	-2048
chie	-2049
stru	-2050
aum	-2051
duc	-2052
▁br	-2053
▁drei	-2054
▁often	-2055
ustain	-2056
▁defic	-2057
▁Arg	-2058
▁Pol	-2059
▁terror	-2060
dle	-2061
▁Afghan	-2062
▁unterstütz	-2063
▁conf	-2064
▁societ	-2065
krise	-2066
▁Klim	-2067
▁exper	-2068
ence	-2069
ästin	-2070
▁before	-2071
iedr	-2072
stoff	-2073
▁relig	-2074
▁consum	-2075
reg	-2076
▁hoch	-2077
benso	-2078
▁fail	-2079
▁follow	-2080
▁To	-2081
issenschaft	-2082
▁प्र	-2083
▁Demokratie	-2084
▁aff	-2085
ieden	-2086
▁creat	-2087
▁aufgrund	-2088
je	-2089
▁eas	-2090
▁Region	-2091
▁vi	-2092
▁geb	-2093
▁som	-2094
▁extre	-2095
▁pla	-2096
▁mult	-2097
ahrscheinlich	-2098
▁Mal	-2099
ußen	-2100
▁2008	-2101
leg	-2102
uppen	-2103
orrupt	-2104
▁Gree	-2105
▁Fl	-2106
ान	-2107
▁allow	-2108
ready	-2109
ination	-2110
▁differ	-2111
ix	-2112
sequ	-2113
▁Rolle	-2114
oney	-2115
▁peace	-2116
▁institutions	-2117
▁Investitionen	-2118
▁ine	-2119
▁compan	-2120
▁Wer	-2121
▁große	-2122
itz	-2123
▁three	-2124
▁International	-2125
mat	-2126
▁enor	-2127
▁dep	-2128
▁Kosten	-2129
िए	-2130
blems	-2131
▁indem	-2132
▁compet	-2133
▁Fall	-2134
▁inner	-2135
▁control	-2136
ality	-2137
ohn	-2138
▁bew	-2139
ience	-2140
▁Industr	-2141
▁Öl	-2142
ikas	-2143
asch	-2144
▁Volks	-2145
▁zunehmen	-2146
▁view	-2147
▁tradition	-2148
bl	-2149
▁National	-2150
▁business	-2151
oh	-2152
▁tun	-2153
▁Bevölk	-2154
▁Energie	-2155
▁zusammen	-2156
ugen	-2157
achsen	-2158
▁NA	-2159
▁mod	-2160
org	-2161
▁Jahrhunder	-2162
zw	-2163
umber	-2164
amas	-2165
itäten	-2166
oment	-2167
ma	-2168
ared	-2169
0,	-2170
iddle	-2171
▁fest	-2172
▁sozial	-2173
▁particular	-2174
▁appe	-2175
▁Pakistan	-2176
ides	-2177
▁job	-2178
▁Zahl	-2179
▁press	-2180
ikt	-2181
lect	-2182
▁Probleme	-2183
air	-2184
▁Nat	-2185
▁Gem	-2186
ielen	-2187
▁problems	-2188
immt	-2189
▁group	-2190
aving	-2191
ibility	-2192
▁inflation	-2193
▁staat	-2194
führt	-2195
▁hous	-2196
▁already	-2197
ehl	-2198
▁East	-2199
▁democracy	-2200
öt	-2201
▁another	-2202
cies	-2203
▁rather	-2204
kehr	-2205
▁kurz	-2206
ürlich	-2207
▁Gesundheit	-2208
▁weak	-2209
sweise	-2210
▁Steuer	-2211
frastr	-2212
▁With	-2213
▁BIP	-2214
▁official	-2215
licherweise	-2216
ittle	-2217
▁Strateg	-2218
iving	-2219
▁Palest	-2220
▁form	-2221
▁curren	-2222
less	-2223
▁New	-2224
stehen	-2225
frage	-2226
▁Auch	-2227
inal	-2228
▁among	-2229
▁betra	-2230
▁Weise	-2231
▁Sh	-2232
▁Selbst	-2233
nb	-2234
▁repr	-2235
▁Bar	-2236
▁internationalen	-2237
▁product	-2238
▁lim	-2239
gemein	-2240
griff	-2241
▁Tod	-2242
▁cr	-2243
most	-2244
▁commit	-2245
▁schon	-2246
▁zwar	-2247
▁money	-2248
▁Rep	-2249
▁higher	-2250
ried	-2251
▁beiden	-2252
▁akt	-2253
ption	-2254
▁Terror	-2255
▁Mög	-2256
▁geht	-2257
▁role	-2258
▁8	-2259
ommission	-2260
▁langfrist	-2261
ars	-2262
äfte	-2263
▁Beh	-2264
laub	-2265
▁cre	-2266
ürk	-2267
▁Zuk	-2268
▁Ph	-2269
▁educ	-2270
ondere	-2271
▁Besch	-2272
▁ph	-2273
▁Fort	-2274
▁einfach	-2275
ituation	-2276
▁stehen	-2277
▁pay	-2278
agn	-2279
bewer	-2280
▁wenig	-2281
agement	-2282
ablish	-2283
▁deren	-2284
istischen	-2285
▁fast	-2286
▁dollar	-2287
▁wel	-2288
▁increase	-2289
▁Moreover	-2290
ampf	-2291
ministration	-2292
&#160;	-2293
▁Leben	-2294
▁kommen	-2295
▁eigenen	-2296
akes	-2297
orge	-2298
▁put	-2299
fluss	-2300
punkt	-2301
▁av	-2302
▁innerhalb	-2303
ued	-2304
ards	-2305
▁dest	-2306
▁Durch	-2307
▁etwas	-2308
▁author	-2309
▁allem	-2310
▁World	-2311
▁France	-2312
▁little	-2313
▁small	-2314
itive	-2315
arn	-2316
▁different	-2317
iten	-2318
iver	-2319
limate	-2320
▁niedr	-2321
ule	-2322
▁frü	-2323
▁play	-2324
innen	-2325
▁around	-2326
▁difficult	-2327
▁Vereinigten	-2328
▁kle	-2329
▁Weg	-2330
▁Lebens	-2331
change	-2332
▁toward	-2333
▁least	-2334
▁Asia	-2335
iges	-2336
▁Lös	-2337
▁infl	-2338
▁post	-2339
enz	-2340
itim	-2341
ativen	-2342
▁außer	-2343
▁त	-2344
▁mein	-2345
ym	-2346
▁verw	-2347
schw	-2348
▁mat	-2349
▁achie	-2350
leist	-2351
▁Frankreich	-2352
▁Amerika	-2353
▁gu	-2354
▁Bezie	-2355
outh	-2356
▁concern	-2357
▁ern	-2358
▁few	-2359
▁entscheiden	-2360
▁histor	-2361
wirkungen	-2362
polit	-2363
▁konn	-2364
▁Frieden	-2365
ode	-2366
▁197	-2367
ingen	-2368
▁individ	-2369
ogen	-2370
isches	-2371
stitutionen	-2372
▁deb	-2373
andid	-2374
▁amerikanischen	-2375
ित	-2376
▁Schl	-2377
▁hätte	-2378
▁steht	-2379
▁jüng	-2380
▁open	-2381
▁integr	-2382
▁scheint	-2383
nbsp	-2384
▁viol	-2385
▁einige	-2386
▁Verh	-2387
▁Wert	-2388
▁Ziel	-2389
▁denn	-2390
idence	-2391
macht	-2392
▁NATO	-2393
ichtung	-2394
▁number	-2395
▁Ide	-2396
▁Ergeb	-2397
▁Milit	-2398
aup	-2399
▁child	-2400
iens	-2401
ielle	-2402
ya	-2403
▁whether	-2404
▁spending	-2405
ants	-2406
▁offen	-2407
▁schne	-2408
ästinens	-2409
▁hard	-2410
formation	-2411
▁wirtschaftliche	-2412
vir	-2413
▁liegt	-2414
▁näch	-2415
▁Bürger	-2416
▁Zukunft	-2417
▁Eurozone	-2418
pid	-2419
abhäng	-2420
▁russ	-2421
position	-2422
amen	-2423
▁means	-2424
abilität	-2425
estic	-2426
▁Frauen	-2427
▁Haushalts	-2428
ögen	-2429
▁eurozone	-2430
▁relations	-2431
▁cut	-2432
stellung	-2433
▁Afghanistan	-2434
▁pot	-2435
▁blo	-2436
▁Heraus	-2437
▁consider	-2438
fass	-2439
▁Aut	-2440
▁Gemein	-2441
▁million	-2442
▁versuch	-2443
▁Möglichkeit	-2444
▁य	-2445
▁sei	-2446
aud	-2447
ades	-2448
ünde	-2449
▁einmal	-2450
▁credit	-2451
▁developing	-2452
▁rul	-2453
▁run	-2454
lossen	-2455
▁civil	-2456
▁cor	-2457
्व	-2458
geln	-2459
enten	-2460
▁rep	-2461
▁vielleicht	-2462
▁non	-2463
▁Lage	-2464
▁6	-2465
▁case	-2466
ller	-2467
örder	-2468
mäß	-2469
▁him	-2470
laim	-2471
tes	-2472
▁impro	-2473
5%	-2474
lus	-2475
itiz	-2476
falls	-2477
erb	-2478
besondere	-2479
▁rights	-2480
äge	-2481
wachstum	-2482
▁internationale	-2483
▁ev	-2484
ilfe	-2485
▁Dar	-2486
▁min	-2487
ünd	-2488
ban	-2489
▁inde	-2490
▁big	-2491
▁however	-2492
▁approach	-2493
▁Einkommen	-2494
ettbewer	-2495
acy	-2496
▁occ	-2497
▁Vertra	-2498
▁Global	-2499
▁needed	-2500
▁demokrat	-2501
RI	-2502
ief	-2503
stieg	-2504
▁Fir	-2505
pecial	-2506
▁monetary	-2507
ktor	-2508
▁Mar	-2509
▁Not	-2510
▁When	-2511
▁you	-2512
ry	-2513
▁Herausforder	-2514
▁next	-2515
maß	-2516
wh	-2517
▁je	-2518
▁Gren	-2519
fang	-2520
▁come	-2521
▁remains	-2522
▁Auswirkungen	-2523
anden	-2524
onment	-2525
▁needs	-2526
▁ak	-2527
▁free	-2528
tro	-2529
ildung	-2530
lau	-2531
line	-2532
▁Handels	-2533
▁hap	-2534
alten	-2535
▁Politiker	-2536
▁meas	-2537
urther	-2538
▁Pers	-2539
▁domestic	-2540
ahe	-2541
▁resour	-2542
ogn	-2543
▁erhö	-2544
▁verfü	-2545
▁reason	-2546
▁pat	-2547
▁Konfl	-2548
ross	-2549
▁Palestin	-2550
ास	-2551
▁say	-2552
▁crit	-2553
▁Wachstums	-2554
▁labor	-2555
iled	-2556
▁ago	-2557
▁1990	-2558
▁serious	-2559
▁ble	-2560
▁stat	-2561
▁sicher	-2562
▁Nor	-2563
kur	-2564
▁month	-2565
▁ähn	-2566
▁9	-2567
▁confl	-2568
▁why	-2569
▁respons	-2570
▁look	-2571
▁lange	-2572
▁Währungs	-2573
▁sustain	-2574
eder	-2575
▁vers	-2576
▁verst	-2577
stellen	-2578
▁Geschichte	-2579
▁full	-2580
▁during	-2581
▁event	-2582
ländern	-2583
ift	-2584
unktion	-2585
▁longer	-2586
▁life	-2587
▁regul	-2588
▁struct	-2589
ases	-2590
utet	-2591
istische	-2592
▁show	-2593
▁bringen	-2594
▁treat	-2595
ना	-2596
unde	-2597
ively	-2598
▁Europas	-2599
▁citiz	-2600
forms	-2601
vironment	-2602
WF	-2603
änger	-2604
▁find	-2605
▁hinaus	-2606
rench	-2607
portun	-2608
schied	-2609
▁आ	-2610
▁cal	-2611
▁return	-2612
▁Lat	-2613
ieten	-2614
utzen	-2615
▁brauch	-2616
▁sever	-2617
gy	-2618
▁हो	-2619
▁establish	-2620
ispielsweise	-2621
ances	-2622
etzung	-2623
▁income	-2624
ocus	-2625
▁Op	-2626
▁Was	-2627
▁within	-2628
bed	-2629
rolle	-2630
▁stud	-2631
▁women	-2632
▁almost	-2633
▁point	-2634
▁globale	-2635
posed	-2636
▁Schwe	-2637
tain	-2638
▁wirk	-2639
▁Zentralbank	-2640
ster	-2641
▁fam	-2642
▁signific	-2643
ike	-2644
oti	-2645
▁suf	-2646
ösen	-2647
▁others	-2648
▁eth	-2649
▁question	-2650
ilt	-2651
िया	-2652
lement	-2653
▁moral	-2654
ommt	-2655
ünf	-2656
pecially	-2657
ators	-2658
▁organ	-2659
▁costs	-2660
▁diplom	-2661
▁höher	-2662
▁Obwohl	-2663
esse	-2664
▁climate	-2665
▁Präsidenten	-2666
hem	-2667
▁का	-2668
▁vielen	-2669
ünft	-2670
▁never	-2671
verage	-2672
▁Bei	-2673
▁fol	-2674
omb	-2675
bau	-2676
ator	-2677
▁relativ	-2678
pite	-2679
▁ersten	-2680
▁potential	-2681
▁price	-2682
MF	-2683
▁seems	-2684
erve	-2685
▁rise	-2686
ाल	-2687
zip	-2688
▁grund	-2689
▁Muslim	-2690
▁unt	-2691
elten	-2692
..	-2693
elves	-2694
▁Sec	-2695
▁streng	-2696
▁think	-2697
▁dessen	-2698
chan	-2699
▁set	-2700
▁Reformen	-2701
▁gemeinsam	-2702
pression	-2703
▁öffentlichen	-2704
▁itself	-2705
▁regime	-2706
amt	-2707
ded	-2708
ahmen	-2709
brit	-2710
▁opportun	-2711
izing	-2712
leiben	-2713
▁Preis	-2714
▁focus	-2715
▁zweit	-2716
way	-2717
zept	-2718
orruption	-2719
key	-2720
▁Ur	-2721
▁ben	-2722
▁stellen	-2723
▁Africa	-2724
ided	-2725
▁attack	-2726
--	-2727
markt	-2728
▁Bo	-2729
press	-2730
racht	-2731
▁coll	-2732
haps	-2733
▁klar	-2734
ikaner	-2735
min	-2736
▁ens	-2737
udget	-2738
▁statt	-2739
▁System	-2740
bas	-2741
▁IMF	-2742
▁weiterhin	-2743
▁normal	-2744
▁fall	-2745
cil	-2746
▁emerging	-2747
fs	-2748
▁Krank	-2749
▁companies	-2750
▁इस	-2751
▁Zug	-2752
ritte	-2753
▁del	-2754
tellt	-2755
ielt	-2756
▁Mehr	-2757
▁expl	-2758
gypt	-2759
▁bleiben	-2760
▁environment	-2761
ienst	-2762
vious	-2763
50	-2764
britann	-2765
▁militär	-2766
▁understand	-2767
res	-2768
▁fra	-2769
▁Geb	-2770
▁ganz	-2771
▁ausl	-2772
▁individual	-2773
▁Sicherheits	-2774
▁currency	-2775
▁especially	-2776
▁recogn	-2777
▁भ	-2778
▁Tra	-2779
▁negoti	-2780
ivity	-2781
iß	-2782
“,	-2783
▁second	-2784
▁greater	-2785
▁Western	-2786
auer	-2787
▁wider	-2788
▁gra	-2789
▁Turkey	-2790
▁betr	-2791
▁pass	-2792
▁unsere	-2793
▁fundament	-2794
▁Großbritann	-2795
▁wahrscheinlich	-2796
▁weitere	-2797
▁Bereich	-2798
▁citizens	-2799
▁Amerikas	-2800
▁erforder	-2801
erst	-2802
▁Bedeut	-2803
▁daher	-2804
▁bleibt	-2805
▁One	-2806
▁given	-2807
omes	-2808
chsel	-2809
ckt	-2810
▁continue	-2811
▁Für	-2812
▁Entscheidung	-2813
ierungs	-2814
▁hatten	-2815
▁society	-2816
▁Ko	-2817
▁further	-2818
▁democratic	-2819
▁Institutionen	-2820
bruch	-2821
▁What	-2822
▁Per	-2823
▁force	-2824
teid	-2825
▁lar	-2826
▁eing	-2827
▁IWF	-2828
▁Mein	-2829
▁claim	-2830
▁schle	-2831
▁schwier	-2832
ürz	-2833
ently	-2834
nehmen	-2835
▁These	-2836
tell	-2837
▁reforms	-2838
▁rad	-2839
▁institution	-2840
▁mus	-2841
▁Lib	-2842
▁unemp	-2843
riechen	-2844
▁verhin	-2845
▁पर	-2846
▁Gleich	-2847
▁besser	-2848
▁sowohl	-2849
zeug	-2850
▁Dis	-2851
▁abs	-2852
dress	-2853
▁wohl	-2854
▁,	-2855
welt	-2856
ehmer	-2857
▁able	-2858
▁darin	-2859
▁Bl	-2860
▁Korea	-2861
▁Fortsch	-2862
▁beispielsweise	-2863
▁loc	-2864
sprechen	-2865
▁insbesondere	-2866
emü	-2867
▁Führung	-2868
▁Während	-2869
▁tats	-2870
▁decades	-2871
▁Mex	-2872
▁share	-2873
▁Gesetz	-2874
orgen	-2875
▁lower	-2876
▁common	-2877
gabe	-2878
▁regional	-2879
▁bl	-2880
chts	-2881
▁bede	-2882
▁Griechen	-2883
▁geben	-2884
▁significant	-2885
▁Wohl	-2886
▁bedeut	-2887
▁Zins	-2888
्त	-2889
▁Gewalt	-2890
▁halten	-2891
▁each	-2892
▁exchange	-2893
▁growing	-2894
▁population	-2895
anger	-2896
▁Europäischen	-2897
▁sug	-2898
▁build	-2899
▁want	-2900
ternal	-2901
▁moment	-2902
▁French	-2903
leihen	-2904
eg	-2905
spr	-2906
▁interests	-2907
net	-2908
▁my	-2909
▁voll	-2910
▁Russian	-2911
▁Coun	-2912
▁vo	-2913
▁steigen	-2914
äufig	-2915
▁Vers	-2916
▁Trans	-2917
igent	-2918
▁anti	-2919
▁Bedeutung	-2920
altung	-2921
▁South	-2922
▁gesam	-2923
lands	-2924
▁certain	-2925
ived	-2926
▁bre	-2927
▁dan	-2928
▁history	-2929
▁Einfluss	-2930
▁हैं	-2931
uellen	-2932
▁trotz	-2933
▁found	-2934
the	-2935
ctive	-2936
▁hier	-2937
▁land	-2938
tember	-2939
▁Bevölkerung	-2940
staaten	-2941
fort	-2942
kämp	-2943
▁left	-2944
▁Wieder	-2945
agt	-2946
▁Süd	-2947
▁Westen	-2948
igte	-2949
umen	-2950
▁cult	-2951
ention	-2952
▁seinem	-2953
essour	-2954
▁Yet	-2955
▁Türk	-2956
▁Beispiel	-2957
▁Hamas	-2958
▁former	-2959
▁Intern	-2960
▁resources	-2961
▁possible	-2962
zuf	-2963
▁yet	-2964
▁erfolg	-2965
wür	-2966
▁Revolution	-2967
▁key	-2968
mögen	-2969
▁education	-2970
▁Türkei	-2971
▁politics	-2972
▁Best	-2973
▁Recht	-2974
rate	-2975
▁gain	-2976
▁derzeit	-2977
ised	-2978
zentr	-2979
▁care	-2980
krieg	-2981
raf	-2982
ellen	-2983
produ	-2984
▁sector	-2985
bat	-2986
▁herv	-2987
▁After	-2988
▁allen	-2989
▁schwer	-2990
weg	-2991
▁लिए	-2992
führung	-2993
▁größten	-2994
▁Zwe	-2995
ements	-2996
▁Kinder	-2997
jen	-2998
▁Frei	-2999
▁lack	-3000
stra	-3001
▁provide	-3002
weisen	-3003
▁Interessen	-3004
stead	-3005
äf	-3006
wärt	-3007
ließen	-3008
▁By	-3009
eign	-3010
▁ur	-3011
▁wollen	-3012
▁used	-3013
▁dür	-3014
▁reach	-3015
▁cho	-3016
▁thems	-3017
▁enough	-3018
▁themselves	-3019
aden	-3020
▁necess	-3021
▁benefits	-3022
▁Tro	-3023
uelle	-3024
unter	-3025
▁gener	-3026
▁terms	-3027
▁Erfolg	-3028
▁gefähr	-3029
▁Wettbewer	-3030
▁NE	-3031
immen	-3032
▁caus	-3033
▁place	-3034
ON	-3035
iat	-3036
onen	-3037
▁thus	-3038
ek	-3039
ässt	-3040
▁yang	-3041
haft	-3042
▁oft	-3043
▁meet	-3044
▁chinesischen	-3045
▁Arbeitslos	-3046
aken	-3047
ends	-3048
▁Stud	-3049
▁efforts	-3050
▁Eng	-3051
iate	-3052
▁Bet	-3053
▁El	-3054
iation	-3055
anzen	-3056
where	-3057
▁Middle	-3058
▁Beziehungen	-3059
äter	-3060
igkeiten	-3061
▁deutlich	-3062
OR	-3063
icient	-3064
▁exist	-3065
spl	-3066
anced	-3067
itzen	-3068
▁Gl	-3069
▁Fund	-3070
oz	-3071
▁Greece	-3072
essourcen	-3073
fahren	-3074
lauben	-3075
▁Saud	-3076
▁face	-3077
▁bevor	-3078
▁wachsen	-3079
▁North	-3080
▁ermög	-3081
▁verbess	-3082
ynam	-3083
▁Even	-3084
▁recover	-3085
▁home	-3086
kan	-3087
▁tal	-3088
bare	-3089
▁Such	-3090
▁strength	-3091
▁Nord	-3092
▁address	-3093
▁bestehen	-3094
arch	-3095
▁Sol	-3096
earch	-3097
ises	-3098
▁forces	-3099
▁increasingly	-3100
leben	-3101
erence	-3102
▁tre	-3103
▁Bemü	-3104
▁Partei	-3105
▁Univers	-3106
▁Inflation	-3107
ex	-3108
ums	-3109
▁recently	-3110
▁nichts	-3111
▁progress	-3112
▁administration	-3113
▁election	-3114
heb	-3115
alien	-3116
▁beim	-3117
▁Sep	-3118
▁fear	-3119
▁While	-3120
▁Lösung	-3121
ways	-3122
▁research	-3123
bei	-3124
arian	-3125
▁half	-3126
▁dort	-3127
▁erreichen	-3128
fern	-3129
ufen	-3130
▁mean	-3131
▁Leist	-3132
ird	-3133
genda	-3134
▁Viel	-3135
▁profit	-3136
kung	-3137
▁Militär	-3138
▁deal	-3139
▁gar	-3140
▁mer	-3141
▁ebenso	-3142
▁believe	-3143
andels	-3144
cken	-3145
sichtlich	-3146
wie	-3147
▁plan	-3148
▁September	-3149
cent	-3150
▁issues	-3151
ding	-3152
sens	-3153
▁head	-3154
▁ihrem	-3155
▁value	-3156
▁century	-3157
li	-3158
ival	-3159
opp	-3160
ising	-3161
reiben	-3162
▁Akt	-3163
▁require	-3164
treten	-3165
▁finden	-3166
▁prevent	-3167
ired	-3168
ool	-3169
fall	-3170
▁ans	-3171
▁begr	-3172
▁Armut	-3173
▁impl	-3174
gether	-3175
ägt	-3176
▁genau	-3177
▁innov	-3178
ternative	-3179
▁Gesellschaft	-3180
▁verd	-3181
sequen	-3182
ober	-3183
▁klein	-3184
▁Den	-3185
▁NEW	-3186
▁2009	-3187
igungs	-3188
▁Ausgaben	-3189
▁slow	-3190
▁rapid	-3191
▁sense	-3192
isieren	-3193
issions	-3194
▁heraus	-3195
ih	-3196
entin	-3197
ified	-3198
iglich	-3199
jenigen	-3200
▁Forsch	-3201
operation	-3202
▁unemployment	-3203
▁Hö	-3204
raft	-3205
▁18	-3206
folge	-3207
▁Großbritannien	-3208
्ष	-3209
▁rich	-3210
▁teil	-3211
liches	-3212
▁कि	-3213
▁reduce	-3214
sy	-3215
though	-3216
▁bedeutet	-3217
▁stability	-3218
schn	-3219
▁dist	-3220
tellen	-3221
▁chang	-3222
front	-3223
iesen	-3224
onal	-3225
ving	-3226
▁ident	-3227
einander	-3228
▁politic	-3229
▁enc	-3230
andlungen	-3231
▁tot	-3232
▁step	-3233
test	-3234
▁umf	-3235
▁pres	-3236
aun	-3237
aged	-3238
istic	-3239
▁Atom	-3240
atives	-3241
▁Außen	-3242
▁keep	-3243
▁ग	-3244
indest	-3245
onders	-3246
▁Sozial	-3247
▁direct	-3248
beh	-3249
reicht	-3250
kauf	-3251
ured	-3252
▁once	-3253
▁liberal	-3254
cher	-3255
▁Kons	-3256
kennen	-3257
▁erhalten	-3258
.000	-3259
▁rule	-3260
▁Druck	-3261
▁Technolog	-3262
wing	-3263
▁Gaz	-3264
▁amerikanische	-3265
oming	-3266
▁children	-3267
▁angesichts	-3268
▁Kampf	-3269
uppe	-3270
ones	-3271
iquid	-3272
asser	-3273
▁erwar	-3274
▁simil	-3275
▁targe	-3276
▁सं	-3277
come	-3278
isse	-3279
usst	-3280
▁popul	-3281
▁budget	-3282
bon	-3283
▁Plan	-3284
amm	-3285
märkte	-3286
ox	-3287
▁ihm	-3288
atast	-3289
▁risks	-3290
▁lediglich	-3291
▁particularly	-3292
iod	-3293
▁she	-3294
▁Rahmen	-3295
zös	-3296
reifen	-3297
▁gering	-3298
▁alles	-3299
▁conflict	-3300
ante	-3301
▁saf	-3302
▁services	-3303
overty	-3304
▁Internet	-3305
▁nächsten	-3306
▁har	-3307
▁early	-3308
uern	-3309
▁argument	-3310
kannt	-3311
▁zus	-3312
fähigkeit	-3313
▁Arbeitspl	-3314
ires	-3315
▁kaum	-3316
gende	-3317
▁Bef	-3318
▁keinen	-3319
▁tatsächlich	-3320
▁Of	-3321
▁rev	-3322
▁contrib	-3323
oid	-3324
eres	-3325
▁strategy	-3326
baren	-3327
▁stabil	-3328
▁schaffen	-3329
ron	-3330
▁Veränder	-3331
cl	-3332
alle	-3333
hmen	-3334
▁though	-3335
ude	-3336
▁notwend	-3337
▁Tatsache	-3338
ksam	-3339
▁Form	-3340
▁zie	-3341
▁univers	-3342
iellen	-3343
▁hinter	-3344
program	-3345
▁nationalen	-3346
▁fl	-3347
▁möglich	-3348
▁camp	-3349
▁simply	-3350
▁verring	-3351
recht	-3352
gef	-3353
▁start	-3354
ump	-3355
▁vict	-3356
▁leadership	-3357
schuld	-3358
▁expect	-3359
▁Nie	-3360
▁ihn	-3361
▁hold	-3362
hör	-3363
▁fran	-3364
▁star	-3365
▁Schwellen	-3366
▁ign	-3367
defiz	-3368
▁oper	-3369
▁fünf	-3370
▁Osten	-3371
ahen	-3372
▁Ich	-3373
▁jähr	-3374
äss	-3375
▁Some	-3376
▁worden	-3377
igr	-3378
▁öffentliche	-3379
▁Egypt	-3380
▁agreement	-3381
oung	-3382
ühren	-3383
▁arab	-3384
▁char	-3385
▁general	-3386
▁create	-3387
▁Zu	-3388
▁gehen	-3389
▁workers	-3390
▁15	-3391
▁west	-3392
▁Regierungs	-3393
chter	-3394
▁massive	-3395
▁jen	-3396
▁issue	-3397
▁maintain	-3398
▁Ass	-3399
▁demon	-3400
bene	-3401
▁times	-3402
ceed	-3403
ärkten	-3404
▁schnell	-3405
imul	-3406
▁Des	-3407
▁Imp	-3408
▁Tre	-3409
▁gab	-3410
andeln	-3411
preise	-3412
▁Klimaw	-3413
▁always	-3414
▁einsch	-3415
▁darüber	-3416
wahl	-3417
auern	-3418
▁1980	-3419
aging	-3420
ingungen	-3421
▁decade	-3422
pekt	-3423
▁old	-3424
incip	-3425
▁local	-3426
▁daran	-3427
äg	-3428
▁extrem	-3429
▁effective	-3430
conomic	-3431
heim	-3432
▁dev	-3433
▁Priv	-3434
▁allgemein	-3435
▁investors	-3436
atic	-3437
▁Ergebnis	-3438
hern	-3439
teile	-3440
▁obwohl	-3441
▁Bel	-3442
▁einge	-3443
▁Bemühungen	-3444
▁2007	-3445
▁poverty	-3446
side	-3447
gegen	-3448
oviet	-3449
1,	-3450
aster	-3451
sätze	-3452
▁ausländ	-3453
▁legitim	-3454
▁funktion	-3455
▁mar	-3456
stant	-3457
▁parties	-3458
▁Ressourcen	-3459
▁Ma	-3460
▁wären	-3461
▁solche	-3462
üt	-3463
inge	-3464
▁Richtung	-3465
ächst	-3466
lassen	-3467
ditions	-3468
ikanischen	-3469
▁Fähigkeit	-3470
erecht	-3471
▁Party	-3472
▁arbeit	-3473
▁true	-3474
▁balance	-3475
▁2010	-3476
▁Council	-3477
of	-3478
▁kommt	-3479
▁deficit	-3480
▁ernst	-3481
▁Americans	-3482
▁Rez	-3483
▁Organis	-3484
▁Program	-3485
▁else	-3486
▁making	-3487
▁shar	-3488
▁zehn	-3489
▁pract	-3490
▁Fre	-3491
▁fal	-3492
▁Risiken	-3493
▁suggest	-3494
▁community	-3495
voll	-3496
▁lässt	-3497
bor	-3498
▁Them	-3499
▁doub	-3500
add	-3501
legt	-3502
▁bar	-3503
▁weap	-3504
▁Trotz	-3505
▁prop	-3506
▁mis	-3507
▁warum	-3508
zustellen	-3509
put	-3510
zub	-3511
itäts	-3512
örden	-3513
▁self	-3514
▁rising	-3515
▁princip	-3516
isions	-3517
▁Vermögen	-3518
▁revolution	-3519
▁Jahres	-3520
▁Argentin	-3521
▁Real	-3522
druck	-3523
lev	-3524
ienen	-3525
▁Kontrolle	-3526
▁eher	-3527
▁Parlam	-3528
▁accept	-3529
▁zunehmend	-3530
▁nehmen	-3531
schie	-3532
▁ehem	-3533
▁offer	-3534
▁Wahlen	-3535
▁Saudi	-3536
leistungen	-3537
▁möglicherweise	-3538
ove	-3539
bere	-3540
würd	-3541
kten	-3542
▁pred	-3543
▁Versuch	-3544
▁influen	-3545
aul	-3546
ording	-3547
▁based	-3548
▁finance	-3549
indung	-3550
▁techn	-3551
zogen	-3552
▁colle	-3553
▁danger	-3554
▁impact	-3555
30	-3556
▁Pat	-3557
▁wirklich	-3558
tete	-3559
ände	-3560
▁jobs	-3561
▁ihres	-3562
atastrop	-3563
▁CO	-3564
▁Bra	-3565
▁erste	-3566
▁französ	-3567
▁gegenwärt	-3568
ork	-3569
▁eben	-3570
▁said	-3571
▁neu	-3572
▁Auss	-3573
▁anders	-3574
▁dramat	-3575
▁levels	-3576
mung	-3577
▁Regul	-3578
▁together	-3579
▁hinsichtlich	-3580
▁unl	-3581
▁Barack	-3582
▁Strategie	-3583
wirtschaften	-3584
sych	-3585
▁Sen	-3586
▁Haupt	-3587
▁unver	-3588
akers	-3589
▁Reakt	-3590
▁period	-3591
▁brit	-3592
▁young	-3593
▁program	-3594
▁Angesichts	-3595
▁erne	-3596
▁spec	-3597
kräfte	-3598
▁Bedro	-3599
▁wealth	-3600
▁च	-3601
jet	-3602
▁30	-3603
▁deep	-3604
▁europäische	-3605
▁hätten	-3606
die	-3607
▁mind	-3608
fense	-3609
In	-3610
deut	-3611
▁verhindern	-3612
union	-3613
▁action	-3614
▁bad	-3615
genommen	-3616
▁Pe	-3617
pected	-3618
▁Kommun	-3619
▁konnte	-3620
▁Natürlich	-3621
▁verschieden	-3622
्थ	-3623
bil	-3624
▁Spiel	-3625
▁invol	-3626
▁vergangen	-3627
▁Verantwort	-3628
oy	-3629
▁Rom	-3630
▁Stra	-3631
▁British	-3632
▁chinesische	-3633
▁fundamental	-3634
▁bra	-3635
zeitig	-3636
▁macht	-3637
▁sl	-3638
ming	-3639
ordin	-3640
gesetzt	-3641
▁increased	-3642
uft	-3643
▁opt	-3644
stre	-3645
▁Ansatz	-3646
▁besonders	-3647
inally	-3648
▁clos	-3649
penden	-3650
▁Risiko	-3651
▁Amerikaner	-3652
▁grundlegen	-3653
▁similar	-3654
by	-3655
,000	-3656
▁party	-3657
▁whose	-3658
ेश	-3659
▁ill	-3660
edom	-3661
liament	-3662
▁bisher	-3663
▁Gesundheits	-3664
▁erklär	-3665
▁stellt	-3666
work	-3667
▁access	-3668
-20	-3669
▁rules	-3670
▁export	-3671
▁Griechenland	-3672
▁hervor	-3673
▁loss	-3674
▁happen	-3675
ritten	-3676
fä	-3677
▁allein	-3678
ining	-3679
▁Fragen	-3680
ell	-3681
trib	-3682
▁sover	-3683
▁despite	-3684
▁unserer	-3685
▁sovereign	-3686
▁hope	-3687
▁sing	-3688
irc	-3689
CB	-3690
ande	-3691
▁Ad	-3692
▁sum	-3693
▁nachhalt	-3694
▁violence	-3695
▁unterschied	-3696
indet	-3697
wed	-3698
▁10	-3699
▁sk	-3700
obil	-3701
▁fight	-3702
▁Central	-3703
▁Ziele	-3704
iers	-3705
▁Fam	-3706
▁project	-3707
▁Vergangen	-3708
ada	-3709
mehr	-3710
▁führt	-3711
▁ehemal	-3712
▁Weltwirtschaft	-3713
▁Europäische	-3714
▁four	-3715
▁derartige	-3716
asst	-3717
ünst	-3718
▁won	-3719
▁decision	-3720
ners	-3721
▁top	-3722
rechte	-3723
schlag	-3724
▁groups	-3725
▁developed	-3726
▁food	-3727
▁Soviet	-3728
cr	-3729
enh	-3730
▁beru	-3731
▁attra	-3732
▁Verfass	-3733
▁Wechsel	-3734
▁जा	-3735
lang	-3736
▁unw	-3737
▁wissen	-3738
▁measures	-3739
▁minister	-3740
äus	-3741
▁vis	-3742
▁Folgen	-3743
▁politicians	-3744
app	-3745
öhn	-3746
▁erz	-3747
kraft	-3748
▁leben	-3749
▁50	-3750
verb	-3751
frastruktur	-3752
▁jo	-3753
risen	-3754
ोग	-3755
▁var	-3756
▁bur	-3757
iveness	-3758
▁Vergangenheit	-3759
blick	-3760
▁position	-3761
▁information	-3762
▁häufig	-3763
▁reflect	-3764
▁challenge	-3765
▁unterstützen	-3766
iken	-3767
ling	-3768
trag	-3769
▁Zweit	-3770
▁total	-3771
▁Republic	-3772
▁aim	-3773
▁unc	-3774
▁Gefahr	-3775
▁richt	-3776
llig	-3777
▁jeder	-3778
▁officials	-3779
▁tw	-3780
hing	-3781
▁sour	-3782
▁Syria	-3783
▁beein	-3784
▁stimul	-3785
▁elections	-3786
▁mag	-3787
ützen	-3788
▁fort	-3789
▁George	-3790
▁called	-3791
▁seek	-3792
ashing	-3793
▁perhaps	-3794
▁bill	-3795
▁vorher	-3796
▁Prozess	-3797
▁Ungleich	-3798
▁don	-3799
▁Span	-3800
yond	-3801
▁imm	-3802
▁opposition	-3803
▁Palestinian	-3804
onnen	-3805
▁adop	-3806
▁ethn	-3807
endent	-3808
▁Russlands	-3809
▁Many	-3810
▁erfolgreich	-3811
ysteme	-3812
▁Grenzen	-3813
osen	-3814
▁five	-3815
▁kind	-3816
▁dise	-3817
▁recht	-3818
से	-3819
▁ü	-3820
▁vier	-3821
eits	-3822
▁sehen	-3823
gn	-3824
ORK	-3825
kal	-3826
odell	-3827
▁YORK	-3828
▁करने	-3829
▁account	-3830
▁done	-3831
▁systems	-3832
▁How	-3833
▁Krem	-3834
dom	-3835
▁sett	-3836
▁Parteien	-3837
▁konzentr	-3838
ही	-3839
aff	-3840
▁cause	-3841
▁comb	-3842
▁conditions	-3843
▁Umwelt	-3844
äche	-3845
▁model	-3846
▁Märkte	-3847
▁necessary	-3848
▁Stabilität	-3849
ifiz	-3850
▁Ang	-3851
▁day	-3852
kennt	-3853
▁avoid	-3854
▁across	-3855
ager	-3856
aign	-3857
▁später	-3858
ugg	-3859
unn	-3860
▁Hoff	-3861
▁Nachfrage	-3862
isiert	-3863
▁Em	-3864
▁Ange	-3865
ira	-3866
▁net	-3867
▁resol	-3868
adurch	-3869
▁Anteil	-3870
▁Rechts	-3871
▁60	-3872
holung	-3873
zess	-3874
ultur	-3875
▁Krie	-3876
▁Wähl	-3877
erk	-3878
▁Kl	-3879
▁encour	-3880
▁Rezession	-3881
▁prim	-3882
ringen	-3883
ipp	-3884
▁employment	-3885
eine	-3886
▁Bill	-3887
▁purs	-3888
▁Today	-3889
▁natural	-3890
▁advanced	-3891
▁Finanzkrise	-3892
▁assets	-3893
▁behaup	-3894
▁Ke	-3895
mier	-3896
chtet	-3897
▁weapons	-3898
▁zentral	-3899
▁$1	-3900
▁liegen	-3901
▁challenges	-3902
orden	-3903
▁Viele	-3904
▁scient	-3905
▁erreicht	-3906
hält	-3907
iker	-3908
▁term	-3909
▁gemacht	-3910
arf	-3911
▁Nahen	-3912
inzip	-3913
ither	-3914
▁aufge	-3915
▁Nationen	-3916
-1	-3917
ingt	-3918
▁inst	-3919
▁jene	-3920
system	-3921
▁General	-3922
▁several	-3923
▁umfassen	-3924
▁weltweiten	-3925
▁Höhe	-3926
▁Schutz	-3927
▁technology	-3928
▁Sow	-3929
▁Asien	-3930
▁failed	-3931
▁pressure	-3932
▁Verbrauch	-3933
▁Imm	-3934
präsident	-3935
▁idea	-3936
▁entire	-3937
▁months	-3938
ZB	-3939
pass	-3940
inter	-3941
▁average	-3942
▁popular	-3943
▁campaign	-3944
zil	-3945
ison	-3946
▁Erd	-3947
▁beit	-3948
▁Hilfe	-3949
▁helfen	-3950
▁requires	-3951
▁inv	-3952
▁makes	-3953
▁Dienst	-3954
▁anderer	-3955
▁Commission	-3956
so	-3957
auen	-3958
▁Integr	-3959
▁Struktur	-3960
▁tem	-3961
▁komp	-3962
▁stärker	-3963
▁single	-3964
▁Führungs	-3965
▁Chr	-3966
▁regard	-3967
▁ideolog	-3968
▁fav	-3969
▁push	-3970
▁fallen	-3971
▁seines	-3972
▁Lin	-3973
setzen	-3974
▁Außer	-3975
teilung	-3976
ffe	-3977
ogra	-3978
stens	-3979
▁debate	-3980
▁zumindest	-3981
▁politischer	-3982
▁miss	-3983
▁rece	-3984
▁seen	-3985
▁Reform	-3986
kurs	-3987
spro	-3988
achten	-3989
nehmer	-3990
▁stock	-3991
▁production	-3992
▁सम	-3993
▁Uns	-3994
▁ask	-3995
▁zahl	-3996
▁offens	-3997
ierenden	-3998
▁erw	-3999
ätzen	-4000
▁Fakt	-4001
▁until	-4002
itiative	-4003
ple	-4004
ished	-4005
▁einzige	-4006
िल	-4007
▁death	-4008
▁Verteid	-4009
▁wichtige	-4010
ziehen	-4011
▁changes	-4012
▁prob	-4013
▁ways	-4014
uing	-4015
▁san	-4016
▁taken	-4017
ktionen	-4018
ourn	-4019
werk	-4020
▁ten	-4021
ragen	-4022
▁glaub	-4023
▁hohen	-4024
insen	-4025
▁Wissenschaft	-4026
▁legal	-4027
▁Palästinens	-4028
atur	-4029
▁EZB	-4030
▁Jan	-4031
▁Sub	-4032
anten	-4033
▁Denn	-4034
ata	-4035
trie	-4036
waffen	-4037
ördern	-4038
▁firms	-4039
▁Nieder	-4040
sequences	-4041
▁subs	-4042
▁Mitglieder	-4043
onse	-4044
down	-4045
▁Stand	-4046
▁became	-4047
▁determ	-4048
▁gerade	-4049
▁geführt	-4050
▁powerful	-4051
cut	-4052
▁ECB	-4053
immung	-4054
▁freedom	-4055
▁Gemeinschaft	-4056
▁Democ	-4057
▁Seite	-4058
▁neigh	-4059
istance	-4060
▁Dieser	-4061
▁influence	-4062
hm	-4063
ored	-4064
ücht	-4065
▁verfol	-4066
▁counter	-4067
▁recovery	-4068
lad	-4069
▁ensure	-4070
▁12	-4071
part	-4072
junkt	-4073
schnitt	-4074
▁vergangenen	-4075
▁verurs	-4076
▁Infrastruktur	-4077
iko	-4078
▁suffer	-4079
AN	-4080
mals	-4081
iegen	-4082
▁Will	-4083
▁away	-4084
▁corpor	-4085
same	-4086
ängt	-4087
▁assum	-4088
▁Jun	-4089
▁San	-4090
▁akzept	-4091
▁consequences	-4092
वा	-4093
▁100	-4094
▁pal	-4095
▁Clin	-4096
▁banking	-4097
▁div	-4098
▁circ	-4099
▁Eigen	-4100
▁learn	-4101
▁created	-4102
▁gre	-4103
korea	-4104
▁call	-4105
▁rat	-4106
ening	-4107
▁2000	-4108
▁huge	-4109
▁neuer	-4110
▁contra	-4111
▁leader	-4112
tragen	-4113
▁excess	-4114
▁values	-4115
▁Öffent	-4116
▁typ	-4117
▁genug	-4118
▁protect	-4119
▁Mehrheit	-4120
aar	-4121
ands	-4122
▁int	-4123
▁zuk	-4124
ucture	-4125
▁addition	-4126
thing	-4127
dessen	-4128
ething	-4129
▁Defiz	-4130
▁genann	-4131
▁consumption	-4132
ott	-4133
▁Aktiv	-4134
pflicht	-4135
orn	-4136
hang	-4137
▁Brazil	-4138
▁recession	-4139
▁entwickeln	-4140
hnen	-4141
just	-4142
▁gewähr	-4143
▁welche	-4144
▁policym	-4145
▁response	-4146
iere	-4147
▁Britain	-4148
▁leading	-4149
▁geworden	-4150
ody	-4151
ति	-4152
wart	-4153
▁gas	-4154
St	-4155
bo	-4156
ती	-4157
issionen	-4158
▁Angriff	-4159
▁Grundlage	-4160
▁bezeich	-4161
▁Federal	-4162
▁Georg	-4163
▁zusätz	-4164
pendence	-4165
▁increasing	-4166
frastructure	-4167
älle	-4168
ünden	-4169
unately	-4170
▁Jahrhunderts	-4171
▁Entscheidungen	-4172
▁Qu	-4173
ämlich	-4174
▁Prime	-4175
wan	-4176
▁move	-4177
▁Afrika	-4178
acc	-4179
▁lat	-4180
▁enorm	-4181
andlung	-4182
▁really	-4183
▁decline	-4184
schuss	-4185
▁areas	-4186
▁früher	-4187
▁Äg	-4188
▁Antw	-4189
ify	-4190
fonds	-4191
▁York	-4192
▁cred	-4193
▁gilt	-4194
▁glauben	-4195
▁russischen	-4196
▁Zusammenarbeit	-4197
bra	-4198
▁Fe	-4199
weis	-4200
▁class	-4201
▁Wohlstand	-4202
▁fair	-4203
▁Situation	-4204
sper	-4205
arkoz	-4206
eless	-4207
iders	-4208
▁Debat	-4209
▁prakt	-4210
▁househ	-4211
auss	-4212
▁drug	-4213
▁israel	-4214
igration	-4215
lichkeiten	-4216
▁Jahrhundert	-4217
iting	-4218
▁Außerdem	-4219
▁particip	-4220
ots	-4221
äger	-4222
▁mem	-4223
▁2005	-4224
ournal	-4225
▁japan	-4226
▁failure	-4227
▁perform	-4228
ucht	-4229
▁che	-4230
▁nahe	-4231
▁soon	-4232
▁Latin	-4233
▁Chance	-4234
▁Zugang	-4235
▁privaten	-4236
lig	-4237
▁erheb	-4238
▁wesent	-4239
▁unabhäng	-4240
के	-4241
▁श	-4242
▁Nov	-4243
▁Stat	-4244
▁Ägyp	-4245
▁Regime	-4246
olid	-4247
▁höch	-4248
▁rein	-4249
▁sure	-4250
kn	-4251
▁Öffentlichkeit	-4252
▁11	-4253
üsse	-4254
▁Bezug	-4255
▁einigen	-4256
▁Japanese	-4257
ehler	-4258
▁2012	-4259
▁Inform	-4260
▁Wasser	-4261
fert	-4262
iance	-4263
telle	-4264
undes	-4265
▁gute	-4266
alition	-4267
▁ए	-4268
▁2004	-4269
inning	-4270
▁nämlich	-4271
erem	-4272
▁Erfahr	-4273
▁Sarkoz	-4274
▁Kos	-4275
▁offiz	-4276
▁verantwort	-4277
raum	-4278
▁Bas	-4279
spect	-4280
▁heut	-4281
▁Austr	-4282
▁aid	-4283
▁Krit	-4284
▁habe	-4285
▁vern	-4286
▁Ausmaß	-4287
▁majority	-4288
ony	-4289
uel	-4290
▁wr	-4291
ffiz	-4292
arily	-4293
▁Beit	-4294
▁Wahr	-4295
▁kurzfrist	-4296
aren	-4297
ension	-4298
▁1,	-4299
▁sollen	-4300
▁opportunity	-4301
des	-4302
hren	-4303
weil	-4304
acity	-4305
▁Nicht	-4306
▁jüngsten	-4307
▁यह	-4308
▁Waffen	-4309
isl	-4310
▁amb	-4311
▁resul	-4312
feld	-4313
▁erg	-4314
▁obs	-4315
redite	-4316
▁respect	-4317
▁वि	-4318
apse	-4319
▁sagen	-4320
seit	-4321
ously	-4322
▁frag	-4323
▁Syrien	-4324
▁Nachbar	-4325
▁Premier	-4326
▁industrial	-4327
ühl	-4328
market	-4329
▁funds	-4330
▁beyond	-4331
▁borrow	-4332
▁Konflik	-4333
▁erkennen	-4334
nete	-4335
▁Sim	-4336
▁effort	-4337
äum	-4338
▁wahr	-4339
▁alone	-4340
▁überw	-4341
▁mensch	-4342
▁supply	-4343
▁Islamic	-4344
sh	-4345
ledge	-4346
▁islam	-4347
bildung	-4348
▁Beschäft	-4349
▁kam	-4350
▁ebenfalls	-4351
dert	-4352
aterial	-4353
einamer	-4354
▁Zw	-4355
ängen	-4356
▁began	-4357
itarian	-4358
▁constitution	-4359
▁water	-4360
▁erschein	-4361
▁something	-4362
junktur	-4363
▁religi	-4364
arak	-4365
▁Ant	-4366
▁situation	-4367
ories	-4368
statt	-4369
▁Anre	-4370
▁deficits	-4371
IN	-4372
▁Now	-4373
▁ess	-4374
igran	-4375
▁effe	-4376
▁solution	-4377
gelt	-4378
▁liber	-4379
▁lost	-4380
▁nothing	-4381
▁behav	-4382
▁surpr	-4383
▁Israeli	-4384
▁Schritt	-4385
ipf	-4386
lant	-4387
▁exports	-4388
▁infrastructure	-4389
uted	-4390
uten	-4391
▁fehl	-4392
▁strategic	-4393
mo	-4394
▁hohe	-4395
▁dynam	-4396
▁enter	-4397
▁Aktien	-4398
▁Ökonom	-4399
chs	-4400
urop	-4401
▁matter	-4402
▁school	-4403
anischen	-4404
▁Europeans	-4405
▁structural	-4406
▁Veränderungen	-4407
DG	-4408
imal	-4409
▁vol	-4410
asion	-4411
grams	-4412
▁zeigen	-4413
▁Clinton	-4414
▁Security	-4415
fäh	-4416
vin	-4417
ought	-4418
änden	-4419
▁religious	-4420
▁Bro	-4421
▁abge	-4422
▁stop	-4423
▁protest	-4424
▁नि	-4425
▁activ	-4426
▁folgen	-4427
▁fördern	-4428
▁cooperation	-4429
kre	-4430
▁ult	-4431
haupt	-4432
▁John	-4433
wertung	-4434
▁sav	-4435
feren	-4436
ograph	-4437
▁effects	-4438
▁zukünft	-4439
ashington	-4440
▁Freiheit	-4441
▁Verhalten	-4442
▁multilateral	-4443
ully	-4444
ported	-4445
▁later	-4446
▁experience	-4447
▁2006	-4448
▁Führer	-4449
▁design	-4450
▁Partner	-4451
▁give	-4452
▁emissions	-4453
▁Bras	-4454
bol	-4455
durch	-4456
▁annual	-4457
▁represent	-4458
ते	-4459
porte	-4460
▁Asian	-4461
▁Herausforderung	-4462
ollah	-4463
affung	-4464
▁programs	-4465
▁Vertrauen	-4466
▁No	-4467
▁media	-4468
▁verbunden	-4469
ül	-4470
fühl	-4471
angel	-4472
erves	-4473
▁Interesse	-4474
▁aktuellen	-4475
▁mal	-4476
▁willing	-4477
▁Erholung	-4478
▁Kosov	-4479
▁ersch	-4480
uth	-4481
wohn	-4482
iding	-4483
▁anzu	-4484
▁Investoren	-4485
hand	-4486
atory	-4487
iolog	-4488
▁Italy	-4489
▁lives	-4490
▁Republ	-4491
▁weiteren	-4492
▁Som	-4493
▁Gruppen	-4494
▁November	-4495
▁Bedrohung	-4496
▁taxes	-4497
▁wrong	-4498
gesehen	-4499
ाम	-4500
ane	-4501
nam	-4502
richt	-4503
▁Innov	-4504
▁quick	-4505
▁erhöhen	-4506
▁Bedingungen	-4507
ansion	-4508
▁besten	-4509
्या	-4510
▁Ir	-4511
▁194	-4512
▁Mos	-4513
▁Män	-4514
wesen	-4515
▁live	-4516
▁reag	-4517
▁führte	-4518
öst	-4519
▁Gu	-4520
▁First	-4521
▁close	-4522
▁natürlich	-4523
▁collapse	-4524
▁Klimawandel	-4525
धिक	-4526
flations	-4527
ksamkeit	-4528
olds	-4529
▁read	-4530
▁Angst	-4531
▁Mexic	-4532
▁either	-4533
▁having	-4534
▁prospect	-4535
älfte	-4536
öffent	-4537
▁Reserve	-4538
▁largely	-4539
▁protection	-4540
▁Gaza	-4541
▁bein	-4542
▁path	-4543
▁estim	-4544
▁insur	-4545
owers	-4546
▁Anfang	-4547
▁Red	-4548
▁Hand	-4549
▁goods	-4550
▁relative	-4551
▁II	-4552
wide	-4553
▁Beg	-4554
wander	-4555
▁wobei	-4556
▁candid	-4557
▁expand	-4558
gestellt	-4559
ko	-4560
werte	-4561
▁Bild	-4562
▁prec	-4563
▁Aller	-4564
▁Privat	-4565
▁object	-4566
llte	-4567
▁Konflikt	-4568
▁positive	-4569
Reg	-4570
▁UNO	-4571
▁Merk	-4572
▁Wider	-4573
▁prior	-4574
▁things	-4575
▁Bildung	-4576
bel	-4577
het	-4578
asse	-4579
hend	-4580
▁Spe	-4581
▁feel	-4582
▁Verantwortung	-4583
adt	-4584
rupt	-4585
▁Tal	-4586
▁flow	-4587
roffen	-4588
▁indeed	-4589
▁essential	-4590
erven	-4591
▁King	-4592
▁side	-4593
▁territ	-4594
örderung	-4595
▁ability	-4596
▁alternative	-4597
Mit	-4598
ape	-4599
▁Än	-4600
▁stre	-4601
kosten	-4602
ierende	-4603
▁Kultur	-4604
▁Schuld	-4605
▁incent	-4606
▁prosper	-4607
▁negotiations	-4608
▁Instead	-4609
schläge	-4610
▁Rel	-4611
achte	-4612
▁Rest	-4613
▁largest	-4614
letz	-4615
ärkt	-4616
▁Kar	-4617
illed	-4618
▁handelt	-4619
▁working	-4620
fre	-4621
▁test	-4622
▁probably	-4623
▁–,	-4624
▁Ins	-4625
▁dro	-4626
hören	-4627
igern	-4628
▁doing	-4629
▁psych	-4630
stitute	-4631
▁Bü	-4632
▁Che	-4633
tlich	-4634
▁achieve	-4635
▁capacity	-4636
▁betrachtet	-4637
-2	-4638
ctr	-4639
ias	-4640
▁Medien	-4641
▁behind	-4642
zwischen	-4643
▁nachdem	-4644
ites	-4645
iveau	-4646
▁Verl	-4647
▁Verfü	-4648
legenheit	-4649
▁beide	-4650
richten	-4651
▁evidence	-4652
▁Allerdings	-4653
▁Verhandlungen	-4654
▁2001	-4655
▁Gegensatz	-4656
entw	-4657
drück	-4658
fully	-4659
▁subsid	-4660
▁25	-4661
▁arm	-4662
▁Washington	-4663
▁Folge	-4664
▁living	-4665
opolit	-4666
▁Wähler	-4667
▁gewesen	-4668
▁nationale	-4669
▁Konjunktur	-4670
▁Mo	-4671
▁mot	-4672
▁2013	-4673
▁Produktiv	-4674
्ट	-4675
cks	-4676
iban	-4677
mand	-4678
prec	-4679
▁mut	-4680
▁union	-4681
▁bezahl	-4682
uz	-4683
temp	-4684
▁lok	-4685
usion	-4686
ichter	-4687
▁Leg	-4688
▁Pos	-4689
äsent	-4690
▁Zust	-4691
▁propos	-4692
▁ziehen	-4693
▁offensicht	-4694
plus	-4695
unächst	-4696
▁reichen	-4697
▁Brasilien	-4698
ynes	-4699
geber	-4700
pendent	-4701
▁größte	-4702
▁integration	-4703
▁traditional	-4704
DS	-4705
▁late	-4706
▁bonds	-4707
▁Ebenso	-4708
▁confidence	-4709
▁app	-4710
▁nöt	-4711
wegung	-4712
derungen	-4713
▁niedrig	-4714
ventionen	-4715
▁partners	-4716
▁My	-4717
▁Lond	-4718
▁immed	-4719
hre	-4720
ender	-4721
▁Zivil	-4722
aria	-4723
ning	-4724
bilanz	-4725
▁Hälfte	-4726
▁schlim	-4727
▁benefit	-4728
▁expected	-4729
sk	-4730
zü	-4731
rel	-4732
▁Kosovo	-4733
▁Sarkozy	-4734
▁Schaffung	-4735
▁überhaupt	-4736
ened	-4737
iell	-4738
ints	-4739
erstör	-4740
zeugen	-4741
▁Exper	-4742
▁favor	-4743
▁länger	-4744
▁attention	-4745
▁phys	-4746
▁boost	-4747
▁Einsatz	-4748
▁Komp	-4749
▁bilateral	-4750
▁productivity	-4751
▁guar	-4752
▁Stärk	-4753
▁Abkommen	-4754
▁Mitglieds	-4755
▁jud	-4756
gency	-4757
▁Ansicht	-4758
▁Nations	-4759
▁Zusammenbruch	-4760
▁Woch	-4761
▁mark	-4762
ception	-4763
▁Anstieg	-4764
▁arabischen	-4765
▁let	-4766
▁2011	-4767
▁quant	-4768
esellschaften	-4769
EC	-4770
best	-4771
▁Jul	-4772
▁Werte	-4773
▁London	-4774
▁report	-4775
▁Vorteile	-4776
EN	-4777
äub	-4778
▁Tai	-4779
▁höhere	-4780
▁sorgen	-4781
▁Verbess	-4782
▁relationship	-4783
use	-4784
▁Acc	-4785
ordan	-4786
▁Stre	-4787
ierter	-4788
▁benöt	-4789
▁behavior	-4790
haus	-4791
▁strugg	-4792
▁discuss	-4793
▁Reaktion	-4794
▁contrast	-4795
▁policymakers	-4796
ulen	-4797
ikanische	-4798
has	-4799
kul	-4800
▁ear	-4801
▁grie	-4802
▁took	-4803
▁Produkt	-4804
ussen	-4805
▁Preise	-4806
▁Jahrzehnten	-4807
▁1970	-4808
▁herr	-4809
▁Govern	-4810
▁verein	-4811
▁Just	-4812
▁extra	-4813
konomen	-4814
▁größere	-4815
▁brauchen	-4816
bi	-4817
ाय	-4818
िन	-4819
▁Amts	-4820
▁Kern	-4821
▁limited	-4822
▁Depression	-4823
lling	-4824
▁Armen	-4825
▁Great	-4826
▁poten	-4827
▁Italien	-4828
▁anhalten	-4829
▁Terrorismus	-4830
inent	-4831
▁mill	-4832
ichtet	-4833
icherung	-4834
▁spielen	-4835
jähr	-4836
▁came	-4837
▁comes	-4838
▁defin	-4839
▁domin	-4840
▁bekommen	-4841
olon	-4842
iment	-4843
▁Niger	-4844
▁politisch	-4845
▁Globalisierung	-4846
go	-4847
▁His	-4848
▁reven	-4849
▁powers	-4850
▁complex	-4851
co	-4852
prü	-4853
▁Heute	-4854
▁Kraft	-4855
▁cases	-4856
▁zeigt	-4857
▁authorities	-4858
head	-4859
ialog	-4860
▁Spain	-4861
▁occur	-4862
▁Friedens	-4863
▁Unabhäng	-4864
▁1.	-4865
itter	-4866
▁Zinsen	-4867
▁guarante	-4868
क्ष	-4869
▁Emp	-4870
teilt	-4871
▁shift	-4872
▁agenda	-4873
▁verbessern	-4874
anken	-4875
▁einzel	-4876
▁implement	-4877
▁Rei	-4878
▁Europäer	-4879
▁schwierig	-4880
tt	-4881
ächen	-4882
▁Develop	-4883
▁Produktion	-4884
MB	-4885
lete	-4886
hafte	-4887
▁Prinzip	-4888
atch	-4889
▁status	-4890
▁eindeut	-4891
▁Although	-4892
▁palästinens	-4893
spar	-4894
▁Tag	-4895
▁ignor	-4896
▁scheinen	-4897
▁paar	-4898
▁reduz	-4899
▁accoun	-4900
▁konnten	-4901
▁governance	-4902
▁verringern	-4903
▁presidential	-4904
ctors	-4905
▁Miss	-4906
▁Integration	-4907
aring	-4908
ändert	-4909
▁Antwort	-4910
▁sozialen	-4911
▁verloren	-4912
▁standards	-4913
ri	-4914
▁Bis	-4915
▁sym	-4916
ennen	-4917
▁Wettbewerbs	-4918
uter	-4919
▁wid	-4920
▁highly	-4921
▁Zinssätze	-4922
▁mö	-4923
ield	-4924
▁worse	-4925
▁coming	-4926
▁surplus	-4927
▁Industriel	-4928
▁Finan	-4929
▁schließlich	-4930
▁jem	-4931
▁Statt	-4932
▁Anzahl	-4933
▁Firmen	-4934
▁leisten	-4935
▁angeb	-4936
▁eigene	-4937
▁dadurch	-4938
▁defense	-4939
▁deliver	-4940
▁Schließlich	-4941
uan	-4942
ouse	-4943
▁2003	-4944
▁Indones	-4945
▁Hoffnung	-4946
▁following	-4947
▁parliament	-4948
▁17	-4949
orgung	-4950
obilien	-4951
unction	-4952
▁Kandid	-4953
ierungen	-4954
▁corruption	-4955
▁entwickelt	-4956
hetor	-4957
▁Hong	-4958
haltung	-4959
▁Einkommens	-4960
▁competition	-4961
osed	-4962
wegen	-4963
quality	-4964
▁terrorism	-4965
▁Kommission	-4966
▁staatlichen	-4967
sc	-4968
inne	-4969
▁Bla	-4970
oting	-4971
▁setzen	-4972
▁Vermögens	-4973
Pr	-4974
ister	-4975
▁uner	-4976
kapital	-4977
▁taking	-4978
udem	-4979
aunch	-4980
neten	-4981
izations	-4982
ilen	-4983
aufen	-4984
▁Einz	-4985
▁Zudem	-4986
▁reality	-4987
▁Most	-4988
▁surv	-4989
▁Sup	-4990
derung	-4991
▁bieten	-4992
IV	-4993
äfts	-4994
▁using	-4995
▁Einige	-4996
▁Gruppe	-4997
ompl	-4998
rats	-4999
▁cru	-5000
▁det	-5001
▁begann	-5002
▁reasons	-5003
oph	-5004
teten	-5005
▁jede	-5006
sektor	-5007
Mitglie	-5008
wendung	-5009
▁negative	-5010
▁gemeinsamen	-5011
▁40	-5012
▁flex	-5013
▁held	-5014
▁Proje	-5015
▁spread	-5016
▁Mitglied	-5017
▁gemeinsame	-5018
▁einschließlich	-5019
▁Verw	-5020
▁Bundes	-5021
▁rasch	-5022
leit	-5023
▁met	-5024
▁indic	-5025
▁verme	-5026
▁burden	-5027
▁constru	-5028
stabilität	-5029
▁intervention	-5030
aks	-5031
▁Fehler	-5032
▁explain	-5033
▁globalization	-5034
▁Regeln	-5035
▁actually	-5036
▁economists	-5037
▁relatively	-5038
herr	-5039
▁Daten	-5040
▁along	-5041
▁versucht	-5042
▁Korruption	-5043
idar	-5044
ägen	-5045
▁versuchen	-5046
▁ground	-5047
▁Steuern	-5048
▁aggress	-5049
▁Premierminister	-5050
ड़	-5051
raten	-5052
▁successful	-5053
▁Fortschritte	-5054
.“	-5055
oms	-5056
▁CA	-5057
teilen	-5058
mar	-5059
opf	-5060
ियों	-5061
▁Dro	-5062
illing	-5063
▁braucht	-5064
▁environmental	-5065
lle	-5066
umb	-5067
tend	-5068
▁Given	-5069
▁Bereichen	-5070
▁verz	-5071
ienten	-5072
▁basic	-5073
▁substant	-5074
ele	-5075
▁mess	-5076
fangen	-5077
▁obvious	-5078
▁beschrän	-5079
का	-5080
▁unbe	-5081
▁vote	-5082
▁Sicht	-5083
klärung	-5084
▁Kredite	-5085
AS	-5086
afr	-5087
ktive	-5088
▁Augen	-5089
▁auszu	-5090
▁Währung	-5091
▁external	-5092
▁gesamten	-5093
izin	-5094
▁Ebene	-5095
▁Schwier	-5096
▁respond	-5097
now	-5098
ählt	-5099
▁fac	-5100
uklear	-5101
▁mechan	-5102
▁nearly	-5103
▁responsibility	-5104
▁cy	-5105
enken	-5106
▁ultim	-5107
▁Debatte	-5108
▁Notwend	-5109
▁wissenschaft	-5110
▁tie	-5111
etzte	-5112
sehen	-5113
▁Krisen	-5114
▁employ	-5115
▁attacks	-5116
▁Kön	-5117
▁data	-5118
▁vö	-5119
mers	-5120
▁196	-5121
▁dre	-5122
▁Opfer	-5123
erseits	-5124
organis	-5125
ification	-5126
▁industry	-5127
▁beitragen	-5128
▁Serb	-5129
addam	-5130
iated	-5131
▁Port	-5132
▁abzu	-5133
▁Seiten	-5134
zunehmen	-5135
▁wodurch	-5136
▁gebracht	-5137
▁Industrie	-5138
▁Vergleich	-5139
vit	-5140
▁news	-5141
▁concerns	-5142
▁decisions	-5143
▁verg	-5144
▁virt	-5145
ökonom	-5146
inen	-5147
▁Ere	-5148
▁legisl	-5149
▁elsewhere	-5150
politischen	-5151
TON	-5152
▁Arme	-5153
ulture	-5154
▁Aufgabe	-5155
▁Dam	-5156
arter	-5157
ikely	-5158
▁Taiwan	-5159
▁Darüber	-5160
▁Verfügung	-5161
▁sustainable	-5162
based	-5163
schiede	-5164
▁bestimm	-5165
▁Weltbank	-5166
▁gl	-5167
▁उन	-5168
▁सक	-5169
▁entgegen	-5170
▁Ökonomen	-5171
▁notwendig	-5172
▁erforderlich	-5173
▁Ober	-5174
▁asset	-5175
ficient	-5176
▁answer	-5177
zusetzen	-5178
▁Janu	-5179
▁reserves	-5180
▁certainly	-5181
▁Strategien	-5182
▁diejenigen	-5183
▁wichtigsten	-5184
▁extreme	-5185
▁verstehen	-5186
kuss	-5187
▁demokratischen	-5188
ifel	-5189
▁air	-5190
▁unlikely	-5191
ietet	-5192
▁Idee	-5193
▁compl	-5194
▁jeden	-5195
▁Saddam	-5196
▁ermöglichen	-5197
ंत	-5198
ीय	-5199
▁sus	-5200
▁Comp	-5201
märkten	-5202
▁Ereign	-5203
▁leicht	-5204
हीं	-5205
▁16	-5206
▁einges	-5207
▁großer	-5208
▁nation	-5209
▁Möglichkeiten	-5210
tent	-5211
▁host	-5212
▁अधिक	-5213
either	-5214
▁Polit	-5215
▁absol	-5216
▁broad	-5217
▁imper	-5218
▁electr	-5219
▁produce	-5220
▁Fä	-5221
messen	-5222
▁owing	-5223
▁Christ	-5224
▁Haushalte	-5225
▁third	-5226
▁clearly	-5227
▁previous	-5228
▁letztlich	-5229
▁bil	-5230
ilität	-5231
invest	-5232
▁Thema	-5233
▁überr	-5234
▁launch	-5235
▁Ag	-5236
ault	-5237
ches	-5238
▁Dav	-5239
▁art	-5240
läss	-5241
▁Ele	-5242
▁kürz	-5243
▁Spanien	-5244
▁commitment	-5245
▁&	-5246
▁,,	-5247
▁21	-5248
lock	-5249
▁Ums	-5250
zusch	-5251
▁foss	-5252
treter	-5253
▁Congress	-5254
▁Ord	-5255
inner	-5256
▁advant	-5257
▁Ausland	-5258
▁brought	-5259
▁Ägypten	-5260
ाह	-5261
▁near	-5262
▁ändern	-5263
ücksicht	-5264
▁results	-5265
▁Immobilien	-5266
▁Inflations	-5267
▁Widerstand	-5268
▁langfristigen	-5269
ancen	-5270
▁reich	-5271
▁words	-5272
▁record	-5273
▁griech	-5274
▁larger	-5275
▁thought	-5276
▁Hinblick	-5277
rated	-5278
▁Städ	-5279
▁mort	-5280
sensus	-5281
▁Reihe	-5282
kämpfung	-5283
▁russische	-5284
▁Herr	-5285
▁known	-5286
industr	-5287
▁voters	-5288
▁uncertain	-5289
ße	-5290
▁Mil	-5291
▁Wel	-5292
endet	-5293
▁Drit	-5294
verständ	-5295
▁Israelis	-5296
▁unterstützt	-5297
uh	-5298
ric	-5299
nach	-5300
▁Net	-5301
ufact	-5302
▁hoff	-5303
gesamt	-5304
▁Daher	-5305
▁Since	-5306
▁frame	-5307
▁transpar	-5308
▁staatliche	-5309
▁mist	-5310
bereit	-5311
▁Warum	-5312
▁jedes	-5313
▁African	-5314
uropa	-5315
etimes	-5316
▁above	-5317
▁Aufmer	-5318
▁Dieses	-5319
▁allowed	-5320
▁verfügen	-5321
dis	-5322
emb	-5323
rain	-5324
▁lag	-5325
gricult	-5326
▁Sowjet	-5327
▁supposed	-5328
▁Can	-5329
lying	-5330
umente	-5331
▁langsam	-5332
▁schützen	-5333
ari	-5334
text	-5335
ladim	-5336
▁family	-5337
▁science	-5338
▁Notwendigkeit	-5339
adem	-5340
alys	-5341
year	-5342
▁pol	-5343
▁Natur	-5344
▁person	-5345
fortunately	-5346
▁Zusammenhang	-5347
▁Aufmerksamkeit	-5348
ückt	-5349
▁bub	-5350
▁outside	-5351
ipher	-5352
▁poll	-5353
ordnung	-5354
▁divers	-5355
▁appears	-5356
▁investments	-5357
▁Sc	-5358
▁vul	-5359
preis	-5360
spiel	-5361
troll	-5362
▁Nahr	-5363
▁Commun	-5364
▁ganzen	-5365
▁Fein	-5366
▁ख	-5367
▁Je	-5368
▁Kre	-5369
träge	-5370
ählen	-5371
▁Regel	-5372
▁gewalt	-5373
schuldung	-5374
dere	-5375
scht	-5376
finden	-5377
undred	-5378
▁Keynes	-5379
▁special	-5380
▁wichtiger	-5381
▁langfristige	-5382
▁Unabhängigkeit	-5383
▁Gold	-5384
ladimir	-5385
▁carbon	-5386
▁stimulus	-5387
.”	-5388
▁Cons	-5389
▁Vors	-5390
▁goal	-5391
▁genet	-5392
pers	-5393
▁May	-5394
▁Paris	-5395
▁forced	-5396
▁Diskuss	-5397
schluss	-5398
▁simple	-5399
▁substantial	-5400
▁Arbeitsplätze	-5401
rach	-5402
endes	-5403
▁Meinung	-5404
▁bekannt	-5405
▁Vereinten	-5406
0.	-5407
▁mir	-5408
▁sex	-5409
▁2015	-5410
▁laut	-5411
etzten	-5412
▁weder	-5413
zwungen	-5414
▁caused	-5415
▁Palestinians	-5416
▁Soc	-5417
▁Flücht	-5418
▁Wissen	-5419
anda	-5420
angs	-5421
▁10%	-5422
▁Gra	-5423
▁liquid	-5424
▁competit	-5425
cer	-5426
orie	-5427
▁easy	-5428
▁Mitte	-5429
▁Mexico	-5430
▁creating	-5431
▁movement	-5432
▁Förderung	-5433
▁dangerous	-5434
▁Geldpolitik	-5435
▁Rett	-5436
▁State	-5437
▁include	-5438
▁meeting	-5439
▁Zentralbanken	-5440
ahn	-5441
uck	-5442
▁et	-5443
▁Bil	-5444
▁days	-5445
▁repla	-5446
ensions	-5447
▁quickly	-5448
▁soziale	-5449
▁Familien	-5450
ita	-5451
osp	-5452
ario	-5453
msten	-5454
▁twent	-5455
▁outcome	-5456
▁arbeiten	-5457
▁heutigen	-5458
▁millions	-5459
▁Sum	-5460
▁los	-5461
reiten	-5462
retary	-5463
▁deshalb	-5464
▁line	-5465
igerung	-5466
telligen	-5467
▁gleichzeitig	-5468
aper	-5469
utes	-5470
▁Bew	-5471
▁Hung	-5472
▁Prior	-5473
▁nutzen	-5474
▁inzwischen	-5475
▁institutional	-5476
▁verantwortlich	-5477
oper	-5478
▁unge	-5479
▁nations	-5480
▁geopolit	-5481
▁momentan	-5482
zeigt	-5483
üssel	-5484
▁Anst	-5485
▁dict	-5486
▁heav	-5487
utzung	-5488
▁Greek	-5489
▁creation	-5490
▁manufact	-5491
▁Investitions	-5492
EL	-5493
met	-5494
▁Spar	-5495
▁Umst	-5496
▁heiß	-5497
▁block	-5498
▁militärische	-5499
alter	-5500
▁Leban	-5501
▁Wandel	-5502
▁aktuelle	-5503
▁independent	-5504
▁Unternehmens	-5505
▁irgend	-5506
▁jeweil	-5507
▁starke	-5508
▁Staates	-5509
▁il	-5510
uver	-5511
▁Hil	-5512
▁ord	-5513
▁cuts	-5514
▁autom	-5515
▁rough	-5516
trieben	-5517
▁durchaus	-5518
▁gewinnen	-5519
▁gewährle	-5520
▁Forschung	-5521
▁Ergebnisse	-5522
▁Lateinamer	-5523
▁Phil	-5524
▁Other	-5525
▁everyone	-5526
▁Zeitpunkt	-5527
▁finanzielle	-5528
▁einzus	-5529
iter	-5530
lass	-5531
▁HIV	-5532
▁isol	-5533
▁sens	-5534
▁occup	-5535
ications	-5536
▁14	-5537
anze	-5538
while	-5539
▁avail	-5540
▁Nutzen	-5541
▁Geschäfts	-5542
ूप	-5543
Pro	-5544
▁Bal	-5545
tempt	-5546
▁Alle	-5547
terity	-5548
politische	-5549
▁Har	-5550
▁zer	-5551
teils	-5552
▁erfü	-5553
bollah	-5554
▁basis	-5555
▁middle	-5556
otenzial	-5557
schulden	-5558
▁improve	-5559
▁performance	-5560
▁Ro	-5561
▁भी	-5562
self	-5563
fallen	-5564
▁reducing	-5565
▁innovation	-5566
tl	-5567
öp	-5568
री	-5569
werten	-5570
▁Modell	-5571
▁helped	-5572
▁personal	-5573
▁raise	-5574
▁appear	-5575
▁vulner	-5576
▁opportunities	-5577
िस	-5578
▁sin	-5579
▁विक	-5580
esten	-5581
▁betrachten	-5582
▁log	-5583
orean	-5584
▁harm	-5585
action	-5586
▁Fällen	-5587
▁Zeiten	-5588
▁adjust	-5589
▁dürfte	-5590
ervative	-5591
▁solchen	-5592
▁Behörden	-5593
▁entwickelten	-5594
ask	-5595
olf	-5596
used	-5597
▁Ern	-5598
▁predict	-5599
▁internal	-5600
▁Parlament	-5601
▁beginning	-5602
▁individuals	-5603
▁Volk	-5604
ferenz	-5605
ältigen	-5606
▁Gesamt	-5607
▁refuge	-5608
▁underm	-5609
▁zweite	-5610
▁Kongress	-5611
▁Schwierigkeiten	-5612
▁separ	-5613
▁Anpass	-5614
▁crises	-5615
▁Verhält	-5616
ING	-5617
bru	-5618
rif	-5619
crib	-5620
▁Von	-5621
▁pen	-5622
▁pur	-5623
▁Paul	-5624
haften	-5625
tended	-5626
▁Blair	-5627
▁assoc	-5628
▁Dennoch	-5629
▁darunter	-5630
ietnam	-5631
▁recon	-5632
▁followed	-5633
▁Verpflicht	-5634
will	-5635
▁flo	-5636
▁कार	-5637
eiter	-5638
▁2002	-5639
agegen	-5640
uments	-5641
▁überall	-5642
▁diplomat	-5643
▁vermeiden	-5644
▁Ha	-5645
ills	-5646
▁moder	-5647
erweise	-5648
▁Gefühl	-5649
▁Taliban	-5650
unternehmen	-5651
▁Development	-5652
▁Palästinenser	-5653
3%	-5654
bu	-5655
▁buy	-5656
▁Fehl	-5657
called	-5658
▁Punkt	-5659
▁argue	-5660
▁thous	-5661
▁disease	-5662
▁housing	-5663
wahlen	-5664
▁Bevölker	-5665
▁Ost	-5666
chmal	-5667
▁Sing	-5668
ensive	-5669
rieben	-5670
▁Einzel	-5671
▁Rechte	-5672
▁declin	-5673
▁Jahrzehnt	-5674
fore	-5675
iste	-5676
renz	-5677
▁Kim	-5678
ernen	-5679
▁Meth	-5680
▁ging	-5681
▁link	-5682
▁asiat	-5683
▁seien	-5684
▁thing	-5685
▁Second	-5686
▁Wahrheit	-5687
नी	-5688
▁Kh	-5689
asen	-5690
elte	-5691
verse	-5692
istisch	-5693
▁required	-5694
▁increases	-5695
aos	-5696
ara	-5697
holt	-5698
lied	-5699
acter	-5700
limin	-5701
▁Status	-5702
▁leiden	-5703
▁komplex	-5704
▁profitieren	-5705
lauf	-5706
▁kons	-5707
▁rene	-5708
▁intern	-5709
ausgaben	-5710
▁becoming	-5711
▁provided	-5712
▁geschaffen	-5713
▁Volkswirtschaft	-5714
▁Geh	-5715
▁spr	-5716
▁Beginn	-5717
▁perman	-5718
reformen	-5719
▁Leistungs	-5720
▁westlichen	-5721
ops	-5722
omin	-5723
▁dring	-5724
▁nature	-5725
▁hundred	-5726
▁größeren	-5727
▁Weltkrieg	-5728
▁recognize	-5729
▁aufzu	-5730
▁minor	-5731
▁intens	-5732
▁culture	-5733
kept	-5734
pose	-5735
▁nar	-5736
▁six	-5737
▁lösen	-5738
defizit	-5739
maßnahmen	-5740
geschlagen	-5741
▁corporate	-5742
▁expansion	-5743
auc	-5744
ibly	-5745
pflich	-5746
▁whole	-5747
▁persön	-5748
economic	-5749
▁trillion	-5750
▁transform	-5751
▁अप	-5752
road	-5753
▁Zum	-5754
▁fed	-5755
▁sal	-5756
▁happ	-5757
▁critical	-5758
▁societies	-5759
leb	-5760
obel	-5761
ports	-5762
▁beinahe	-5763
▁starken	-5764
▁erwarten	-5765
pret	-5766
rieb	-5767
▁Gre	-5768
▁Roh	-5769
▁orig	-5770
sprech	-5771
▁darum	-5772
ilities	-5773
▁gestellt	-5774
atastrophe	-5775
▁established	-5776
mon	-5777
▁एक	-5778
reitung	-5779
ränkungen	-5780
▁Regionen	-5781
▁mechanism	-5782
▁Ju	-5783
imin	-5784
reck	-5785
▁fix	-5786
▁Buch	-5787
▁initi	-5788
▁Verbünde	-5789
▁sanctions	-5790
Re	-5791
DGE	-5792
IDS	-5793
MBRI	-5794
▁pan	-5795
▁boom	-5796
MBRIDGE	-5797
▁Konsum	-5798
▁begrenz	-5799
▁CAMBRIDGE	-5800
▁teilweise	-5801
cep	-5802
ests	-5803
▁age	-5804
▁aner	-5805
▁repe	-5806
eitern	-5807
rechts	-5808
▁parts	-5809
▁output	-5810
▁gegeben	-5811
ाद	-5812
apaz	-5813
▁Thus	-5814
▁break	-5815
▁building	-5816
▁Ky	-5817
aber	-5818
icit	-5819
atten	-5820
anleihen	-5821
▁Anleihen	-5822
▁Rückgang	-5823
▁Übergang	-5824
▁suc	-5825
range	-5826
▁Mann	-5827
ielten	-5828
▁purch	-5829
bereich	-5830
▁Bereit	-5831
▁turned	-5832
▁succeed	-5833
▁agricult	-5834
▁vollständ	-5835
▁Wettbewerb	-5836
2%	-5837
▁नहीं	-5838
stellt	-5839
▁inevit	-5840
▁Wechselkurs	-5841
üst	-5842
▁sw	-5843
reiche	-5844
erences	-5845
wärmung	-5846
▁vision	-5847
abkommen	-5848
▁Ordnung	-5849
▁Verfassung	-5850
▁Unfortunately	-5851
hood	-5852
▁bietet	-5853
▁events	-5854
▁verfügt	-5855
▁Id	-5856
▁inf	-5857
▁port	-5858
höhung	-5859
▁Sektor	-5860
otenbank	-5861
▁Monaten	-5862
▁products	-5863
▁schlecht	-5864
▁unmittel	-5865
▁veröffent	-5866
▁Jahrzehnte	-5867
▁transition	-5868
DON	-5869
▁Pra	-5870
▁era	-5871
ONDON	-5872
▁pain	-5873
▁bessere	-5874
▁radical	-5875
▁Jap	-5876
▁source	-5877
▁völlig	-5878
strument	-5879
▁roughly	-5880
▁entsprechen	-5881
9,	-5882
``	-5883
ho	-5884
▁Aug	-5885
▁stagn	-5886
▁announ	-5887
▁independence	-5888
▁UK	-5889
▁qual	-5890
gewicht	-5891
▁Kingdom	-5892
▁Vietnam	-5893
▁savings	-5894
▁experien	-5895
▁Technologien	-5896
▁Informationen	-5897
AR	-5898
ulf	-5899
uropä	-5900
▁talk	-5901
▁LONDON	-5902
▁Mensch	-5903
▁warming	-5904
▁proposed	-5905
▁Gesellschaften	-5906
cro	-5907
▁choice	-5908
▁damage	-5909
▁durchschnitt	-5910
icks	-5911
▁size	-5912
▁demonst	-5913
▁dollars	-5914
▁cultural	-5915
▁eventually	-5916
2-	-5917
hi	-5918
ाव	-5919
asi	-5920
othe	-5921
▁देश	-5922
▁Medik	-5923
▁illeg	-5924
▁merely	-5925
▁Economic	-5926
▁Monetary	-5927
▁continued	-5928
▁Finanzierung	-5929
▁verschiedenen	-5930
▁Nur	-5931
▁summit	-5932
▁instead	-5933
▁demonstr	-5934
▁Einwander	-5935
▁worldwide	-5936
Dollar	-5937
gefähr	-5938
▁formal	-5939
▁According	-5940
▁currently	-5941
ष्ट	-5942
wach	-5943
▁Lauf	-5944
fragen	-5945
▁beeinfl	-5946
▁rapidly	-5947
▁eindeutig	-5948
▁technologies	-5949
pril	-5950
uren	-5951
▁Neu	-5952
▁wom	-5953
▁Kurz	-5954
▁alten	-5955
tellect	-5956
▁imposs	-5957
▁Technologie	-5958
urd	-5959
größ	-5960
merk	-5961
▁famil	-5962
▁cities	-5963
▁höheren	-5964
▁Argentina	-5965
▁knowledge	-5966
▁konzentrieren	-5967
aj	-5968
alu	-5969
▁स्व	-5970
▁sent	-5971
igrants	-5972
struktur	-5973
▁Krieges	-5974
▁verpflich	-5975
ique	-5976
▁2014	-5977
▁book	-5978
▁Minder	-5979
▁eigent	-5980
▁jährlich	-5981
▁Billionen	-5982
▁questions	-5983
▁organizations	-5984
ware	-5985
▁your	-5986
▁Japans	-5987
▁center	-5988
▁victim	-5989
▁regions	-5990
ungsmittel	-5991
ients	-5992
▁Putins	-5993
▁formul	-5994
▁tragen	-5995
▁ehemaligen	-5996
▁Jew	-5997
▁cle	-5998
▁exc	-5999
▁hop	-6000
elfare	-6001
▁Dinge	-6002
▁intro	-6003
▁mobil	-6004
▁contain	-6005
▁austerity	-6006
▁terrorist	-6007
▁Menschenrechte	-6008
-19	-6009
▁bek	-6010
finanz	-6011
ped	-6012
▁är	-6013
tritt	-6014
▁Relig	-6015
möglich	-6016
▁bewusst	-6017
▁ausreich	-6018
▁abz	-6019
▁Extre	-6020
▁bedro	-6021
▁jedem	-6022
▁zudem	-6023
...	-6024
itze	-6025
iency	-6026
▁mich	-6027
▁elected	-6028
▁zweiten	-6029
▁übernehmen	-6030
▁अन	-6031
ahren	-6032
ipfel	-6033
ohlen	-6034
▁schl	-6035
▁tief	-6036
für	-6037
pon	-6038
dete	-6039
▁fell	-6040
▁einst	-6041
▁fully	-6042
▁August	-6043
▁damals	-6044
▁vieler	-6045
▁Erstens	-6046
▁verfolgen	-6047
rang	-6048
▁Pop	-6049
▁bin	-6050
▁fig	-6051
fälle	-6052
gence	-6053
quote	-6054
ziell	-6055
▁heißt	-6056
▁macro	-6057
▁elector	-6058
▁verschw	-6059
▁prosperity	-6060
▁Finanzmärkte	-6061
An	-6062
▁Kom	-6063
asien	-6064
äften	-6065
▁disp	-6066
▁Vertrag	-6067
▁authority	-6068
▁Verbesserung	-6069
anj	-6070
üter	-6071
▁lin	-6072
▁vast	-6073
astern	-6074
ighten	-6075
▁April	-6076
▁Gespr	-6077
▁neues	-6078
sichten	-6079
▁kulture	-6080
einkommen	-6081
▁Krankheiten	-6082
elbe	-6083
▁Ben	-6084
▁brut	-6085
▁erhöht	-6086
▁Chancen	-6087
▁Legitim	-6088
▁verlang	-6089
▁wesentlich	-6090
ifft	-6091
▁enorme	-6092
▁attempt	-6093
▁gezeigt	-6094
▁insgesamt	-6095
▁Fortschritt	-6096
bet	-6097
back	-6098
hens	-6099
opol	-6100
▁jun	-6101
▁gradu	-6102
programm	-6103
amb	-6104
dra	-6105
züg	-6106
ften	-6107
ktors	-6108
▁Liby	-6109
▁verh	-6110
▁Kriegs	-6111
▁erneut	-6112
▁introdu	-6113
▁scientific	-6114
ाज	-6115
enmin	-6116
ündet	-6117
▁Akte	-6118
▁area	-6119
▁Liberal	-6120
▁Außenpolitik	-6121
▁Bot	-6122
ücken	-6123
denken	-6124
▁below	-6125
▁Massen	-6126
▁generation	-6127
▁membership	-6128
▁throughout	-6129
ुन	-6130
▁Bur	-6131
▁Ged	-6132
▁wants	-6133
▁Eigent	-6134
▁chance	-6135
▁Opposition	-6136
▁inequality	-6137
icts	-6138
▁Ihre	-6139
▁Kurs	-6140
▁here	-6141
vement	-6142
▁optim	-6143
▁financing	-6144
▁incentives	-6145
▁regulation	-6146
Ver	-6147
tei	-6148
besch	-6149
▁erinn	-6150
sträger	-6151
▁kommun	-6152
▁Argument	-6153
oto	-6154
afft	-6155
▁Dec	-6156
▁Mah	-6157
hilfe	-6158
icity	-6159
▁quantit	-6160
▁framework	-6161
ao	-6162
▁Ap	-6163
ächte	-6164
ferend	-6165
▁ahead	-6166
▁Mangel	-6167
▁Streit	-6168
▁easily	-6169
▁stärken	-6170
▁insurance	-6171
▁Last	-6172
▁sieht	-6173
▁wegen	-6174
▁reduced	-6175
▁Nachbarn	-6176
&#160;&#160;	-6177
▁कम	-6178
idet	-6179
örde	-6180
▁dee	-6181
▁Mach	-6182
▁marg	-6183
▁Treat	-6184
▁critic	-6185
▁towards	-6186
▁Krankheit	-6187
▁Verteidigungs	-6188
▁जो	-6189
▁Lik	-6190
▁frei	-6191
▁gesamte	-6192
rok	-6193
nissen	-6194
strateg	-6195
▁allies	-6196
▁Schluss	-6197
tellectual	-6198
▁continues	-6199
▁Produktions	-6200
▁Verbraucher	-6201
4%	-6202
wa	-6203
kampf	-6204
klären	-6205
▁Simil	-6206
▁begin	-6207
▁dauer	-6208
▁inform	-6209
▁verkauf	-6210
▁verlieren	-6211
▁profession	-6212
plan	-6213
vert	-6214
gehend	-6215
▁Teilen	-6216
versorgung	-6217
▁assistance	-6218
gl	-6219
hab	-6220
▁ने	-6221
olicy	-6222
▁weiß	-6223
▁außen	-6224
▁verab	-6225
▁zuvor	-6226
griffen	-6227
▁present	-6228
▁Secretary	-6229
▁management	-6230
fäng	-6231
▁Fern	-6232
alität	-6233
orient	-6234
▁Gläub	-6235
▁scale	-6236
▁bringt	-6237
▁complete	-6238
▁impossible	-6239
▁demokratische	-6240
cul	-6241
▁Qual	-6242
▁Vene	-6243
▁tend	-6244
liegen	-6245
▁Glück	-6246
▁ideas	-6247
▁trying	-6248
▁forward	-6249
▁victory	-6250
Präsident	-6251
▁Position	-6252
▁thinking	-6253
▁außerhalb	-6254
ले	-6255
sec	-6256
akro	-6257
▁unz	-6258
▁earn	-6259
▁Ident	-6260
▁appar	-6261
schwung	-6262
▁Diplom	-6263
▁Export	-6264
▁manche	-6265
▁ausländische	-6266
ktr	-6267
ney	-6268
▁Prä	-6269
▁süd	-6270
▁Only	-6271
▁Armee	-6272
enminbi	-6273
gewiesen	-6274
▁distrib	-6275
▁available	-6276
▁britischen	-6277
गा	-6278
▁Spann	-6279
▁super	-6280
▁office	-6281
▁wichtigen	-6282
▁politically	-6283
त्	-6284
कार	-6285
zeugt	-6286
▁fuel	-6287
▁laws	-6288
▁rund	-6289
stoffe	-6290
▁Organ	-6291
▁loans	-6292
barkeit	-6293
▁Gründe	-6294
▁elimin	-6295
▁factors	-6296
▁militärischen	-6297
▁Zus	-6298
▁dim	-6299
▁getan	-6300
▁gesagt	-6301
▁Haltung	-6302
▁Faktoren	-6303
▁standard	-6304
▁character	-6305
▁französischen	-6306
gal	-6307
▁Co	-6308
▁Why	-6309
ering	-6310
luste	-6311
▁bail	-6312
ährung	-6313
▁gehör	-6314
▁posit	-6315
▁apprec	-6316
▁Israels	-6317
▁additional	-6318
▁Pf	-6319
▁उप	-6320
lose	-6321
▁Car	-6322
▁Gas	-6323
▁Tages	-6324
ffizien	-6325
▁Kräfte	-6326
▁afford	-6327
indungen	-6328
▁legitimacy	-6329
▁Internationalen	-6330
7%	-6331
▁Tat	-6332
▁mid	-6333
itten	-6334
leger	-6335
▁krit	-6336
achtet	-6337
▁sides	-6338
▁talks	-6339
ication	-6340
▁Mexiko	-6341
▁ökonom	-6342
▁according	-6343
krank	-6344
▁amount	-6345
▁keiner	-6346
▁Exporte	-6347
▁dagegen	-6348
▁Ungleichheit	-6349
law	-6350
richtung	-6351
▁treffen	-6352
▁suggests	-6353
▁offensichtlich	-6354
wind	-6355
▁Monat	-6356
▁erklärt	-6357
▁Ausdruck	-6358
▁Zweitens	-6359
▁kontroll	-6360
▁kürzlich	-6361
▁unmöglich	-6362
let	-6363
▁Ze	-6364
mäßig	-6365
▁meng	-6366
▁Stadt	-6367
▁Moment	-6368
▁affect	-6369
▁existing	-6370
▁principle	-6371
▁households	-6372
▁``	-6373
agte	-6374
levant	-6375
gruppen	-6376
▁police	-6377
▁kommenden	-6378
▁Einführung	-6379
ehm	-6380
airs	-6381
lebt	-6382
unkte	-6383
▁bald	-6384
führer	-6385
olonial	-6386
▁verlassen	-6387
▁Generation	-6388
▁Sanktionen	-6389
zuel	-6390
▁exe	-6391
istent	-6392
▁Todes	-6393
▁crucial	-6394
▁enormen	-6395
▁effektiv	-6396
▁erklären	-6397
▁Umsetzung	-6398
▁Atomwaffen	-6399
ader	-6400
▁Ann	-6401
▁inn	-6402
▁rob	-6403
▁Luft	-6404
▁tool	-6405
▁wars	-6406
iminal	-6407
▁commer	-6408
▁mehrere	-6409
▁rational	-6410
▁sometimes	-6411
▁grundlegende	-6412
ios	-6413
aupts	-6414
▁writ	-6415
▁König	-6416
▁aimed	-6417
▁frien	-6418
▁restr	-6419
▁unser	-6420
zubauen	-6421
▁destru	-6422
▁neither	-6423
▁consumer	-6424
▁Wahrschein	-6425
▁Go	-6426
ball	-6427
▁win	-6428
▁soft	-6429
atoren	-6430
ypothe	-6431
▁vital	-6432
▁losses	-6433
▁seemed	-6434
▁irgende	-6435
▁behaupten	-6436
ux	-6437
yl	-6438
openh	-6439
orial	-6440
▁sechs	-6441
▁company	-6442
▁subject	-6443
▁economics	-6444
ugal	-6445
▁road	-6446
▁verk	-6447
ubarak	-6448
▁prime	-6449
▁worth	-6450
▁Einsch	-6451
▁bedarf	-6452
▁Kremlin	-6453
▁thereby	-6454
▁Aufstieg	-6455
▁Venezuel	-6456
▁erfordert	-6457
lier	-6458
▁jener	-6459
▁urban	-6460
portion	-6461
▁Econom	-6462
▁beteil	-6463
▁Lebanon	-6464
▁difference	-6465
▁रह	-6466
▁arr	-6467
maßen	-6468
örper	-6469
▁1997	-6470
▁insp	-6471
▁leave	-6472
▁radik	-6473
▁erster	-6474
▁falsch	-6475
▁stable	-6476
andlungs	-6477
▁lending	-6478
▁due	-6479
▁hum	-6480
oring	-6481
▁Dire	-6482
racies	-6483
▁doubt	-6484
arbeiten	-6485
▁Realität	-6486
▁Financial	-6487
geschlossen	-6488
ina	-6489
▁Wall	-6490
▁abhäng	-6491
▁emphas	-6492
▁kurzem	-6493
▁Mubarak	-6494
▁Hinsicht	-6495
▁material	-6496
seh	-6497
▁ru	-6498
▁Amt	-6499
heben	-6500
▁mortg	-6501
▁circum	-6502
▁actions	-6503
▁intellectual	-6504
ült	-6505
icro	-6506
udan	-6507
▁Poland	-6508
▁enable	-6509
▁wenige	-6510
▁Despite	-6511
▁Finally	-6512
▁treatment	-6513
nern	-6514
▁save	-6515
▁Falle	-6516
▁natür	-6517
▁Treaty	-6518
▁agreed	-6519
▁matters	-6520
openhagen	-6521
▁Kandidaten	-6522
▁finanziellen	-6523
▁Organisationen	-6524
ech	-6525
erc	-6526
äne	-6527
▁zug	-6528
aries	-6529
▁Holl	-6530
▁किया	-6531
graben	-6532
▁äußer	-6533
▁reduction	-6534
▁diplomatic	-6535
▁investieren	-6536
cle	-6537
▁13	-6538
riff	-6539
haben	-6540
▁imag	-6541
andelt	-6542
▁agree	-6543
▁minim	-6544
▁story	-6545
▁Umfang	-6546
zuführen	-6547
▁Truppen	-6548
▁promote	-6549
Regierung	-6550
▁competitiveness	-6551
▁थ	-6552
▁Mc	-6553
äher	-6554
ampag	-6555
▁1930	-6556
▁Kreml	-6557
▁Nobel	-6558
▁aussch	-6559
▁Schaden	-6560
▁reached	-6561
▁Vielleicht	-6562
ER	-6563
apt	-6564
▁ला	-6565
utzt	-6566
▁Abe	-6567
▁Urs	-6568
▁doc	-6569
▁prep	-6570
▁kleinen	-6571
-200	-6572
bors	-6573
mern	-6574
▁limit	-6575
▁Liquid	-6576
▁presen	-6577
▁Gerichts	-6578
▁projects	-6579
▁wiederum	-6580
▁Liban	-6581
▁somit	-6582
▁Indian	-6583
▁direkt	-6584
▁Trotzdem	-6585
▁untersch	-6586
▁committed	-6587
▁gezwungen	-6588
ows	-6589
onom	-6590
ewise	-6591
ischem	-6592
▁compe	-6593
▁Anreize	-6594
alia	-6595
ieht	-6596
▁Tun	-6597
▁opin	-6598
▁Anspr	-6599
▁विकास	-6600
ternehmer	-6601
▁gleichen	-6602
▁Sowjetunion	-6603
öse	-6604
merz	-6605
tler	-6606
▁senken	-6607
▁Nigeria	-6608
▁therefore	-6609
▁Organisation	-6610
val	-6611
▁$2	-6612
▁Ist	-6613
▁try	-6614
llten	-6615
▁coup	-6616
▁deter	-6617
▁Erwart	-6618
▁Merkel	-6619
▁niemand	-6620
▁service	-6621
▁stronger	-6622
▁direction	-6623
ames	-6624
▁diss	-6625
▁Eastern	-6626
▁borders	-6627
▁entfern	-6628
▁Personen	-6629
▁verschär	-6630
▁Tradition	-6631
▁differences	-6632
iums	-6633
▁Damit	-6634
▁drast	-6635
▁compar	-6636
▁federal	-6637
▁overall	-6638
▁directly	-6639
▁advantage	-6640
pay	-6641
uses	-6642
▁afr	-6643
▁irre	-6644
wirken	-6645
▁Analy	-6646
▁Männer	-6647
▁freien	-6648
▁muslim	-6649
▁target	-6650
▁Anstren	-6651
▁demands	-6652
▁thousands	-6653
▁Behandlung	-6654
▁effectively	-6655
lud	-6656
▁2.	-6657
mark	-6658
▁Dez	-6659
▁unf	-6660
▁Kenn	-6661
cement	-6662
leitet	-6663
▁going	-6664
▁mächt	-6665
▁wages	-6666
▁Erklärung	-6667
▁consensus	-6668
bild	-6669
emen	-6670
deten	-6671
▁scen	-6672
▁Strom	-6673
behörden	-6674
▁Konflikte	-6675
▁historical	-6676
▁gewährleisten	-6677
ykl	-6678
ased	-6679
leun	-6680
▁leb	-6681
▁übr	-6682
cause	-6683
ested	-6684
▁Mean	-6685
ragmat	-6686
iciency	-6687
▁Bericht	-6688
▁Perhaps	-6689
▁bestimmt	-6690
▁importance	-6691
▁gegenwärtigen	-6692
▁understanding	-6693
osn	-6694
adox	-6695
iety	-6696
▁रूप	-6697
▁armen	-6698
▁Extrem	-6699
▁claims	-6700
▁engine	-6701
▁constra	-6702
▁describ	-6703
▁quality	-6704
▁britische	-6705
▁Alternative	-6706
inary	-6707
▁Niveau	-6708
▁theory	-6709
▁liquidity	-6710
▁businesses	-6711
▁0,	-6712
▁20%	-6713
otion	-6714
▁1960	-6715
schefs	-6716
▁Gener	-6717
▁produz	-6718
▁Nordkorea	-6719
▁immediate	-6720
▁Initiative	-6721
▁sufficient	-6722
▁internationaler	-6723
dies	-6724
öhne	-6725
▁bond	-6726
▁sold	-6727
gewöhn	-6728
▁ansch	-6729
▁untuk	-6730
▁Social	-6731
▁vermut	-6732
arbeiter	-6733
▁Schritte	-6734
▁befinden	-6735
▁dringend	-6736
▁neighbors	-6737
ami	-6738
enkt	-6739
oden	-6740
▁disk	-6741
▁Stimmen	-6742
▁weltweite	-6743
▁akzeptieren	-6744
▁responsible	-6745
ams	-6746
▁kämp	-6747
▁ries	-6748
estens	-6749
▁embra	-6750
▁refle	-6751
▁assess	-6752
▁equity	-6753
▁Gegenteil	-6754
hnt	-6755
rak	-6756
anks	-6757
izes	-6758
repr	-6759
▁Febru	-6760
▁Platz	-6761
▁truth	-6762
fordern	-6763
▁widely	-6764
▁default	-6765
▁providing	-6766
Un	-6767
oted	-6768
▁Fis	-6769
▁Leh	-6770
▁Lock	-6771
▁spir	-6772
dienst	-6773
▁Hinter	-6774
▁facing	-6775
▁mittel	-6776
▁beginnen	-6777
▁beträcht	-6778
▁zugleich	-6779
▁entstehen	-6780
▁Verbindung	-6781
set	-6782
utr	-6783
▁Rat	-6784
iegelt	-6785
▁propert	-6786
▁reflects	-6787
com	-6788
mord	-6789
orien	-6790
▁army	-6791
▁Glaub	-6792
▁sound	-6793
▁Jordan	-6794
▁tempor	-6795
▁express	-6796
▁Chinesen	-6797
▁Zahlungs	-6798
▁wachsenden	-6799
▁funktionieren	-6800
8%	-6801
any	-6802
▁pun	-6803
teuer	-6804
▁Cold	-6805
▁blie	-6806
▁sinn	-6807
ologie	-6808
▁argued	-6809
▁anything	-6810
▁Meanwhile	-6811
▁reagieren	-6812
gesellschaft	-6813
▁competitive	-6814
6%	-6815
uber	-6816
▁Its	-6817
barer	-6818
▁steps	-6819
▁sectors	-6820
▁zufolge	-6821
regierung	-6822
▁Großteil	-6823
Sch	-6824
▁दे	-6825
auso	-6826
ensp	-6827
fers	-6828
ützt	-6829
▁Col	-6830
▁Com	-6831
▁gap	-6832
▁Patienten	-6833
▁Similarly	-6834
▁Gelegenheit	-6835
ipul	-6836
äuft	-6837
▁Ahm	-6838
reite	-6839
▁Dikt	-6840
mented	-6841
▁effiz	-6842
▁nötig	-6843
▁People	-6844
ventional	-6845
▁Programm	-6846
▁function	-6847
verständlich	-6848
asury	-6849
▁Effe	-6850
▁Sunn	-6851
▁defe	-6852
▁ster	-6853
jected	-6854
▁1990’	-6855
▁Boden	-6856
▁England	-6857
▁handeln	-6858
▁Finanzin	-6859
▁Lösungen	-6860
▁Schwellenländer	-6861
ूर	-6862
▁Völk	-6863
atever	-6864
▁Basis	-6865
▁conne	-6866
national	-6867
abilities	-6868
▁consumers	-6869
▁wachsende	-6870
▁Vorstellung	-6871
mü	-6872
▁hil	-6873
halts	-6874
▁Both	-6875
▁week	-6876
▁Autor	-6877
▁condu	-6878
▁falls	-6879
▁imbal	-6880
सी	-6881
▁2%	-6882
ails	-6883
▁gesellschaft	-6884
ka	-6885
▁dism	-6886
sector	-6887
▁Ideen	-6888
▁fried	-6889
▁ständ	-6890
▁altern	-6891
▁changed	-6892
Kon	-6893
ety	-6894
▁Do	-6895
▁ले	-6896
asten	-6897
setzt	-6898
▁warn	-6899
handen	-6900
▁border	-6901
jahr	-6902
▁anz	-6903
▁Turk	-6904
▁stra	-6905
ureauc	-6906
▁motiv	-6907
▁serve	-6908
▁Bildungs	-6909
▁Meinungs	-6910
▁wichtigste	-6911
gas	-6912
gern	-6913
▁Ser	-6914
▁core	-6915
▁paid	-6916
▁verm	-6917
▁Polen	-6918
▁trust	-6919
▁Modern	-6920
▁destro	-6921
▁limits	-6922
▁meaning	-6923
▁Erhöhung	-6924
▁coalition	-6925
▁2,	-6926
wise	-6927
uchen	-6928
▁Netz	-6929
▁Their	-6930
▁bestät	-6931
▁remark	-6932
immungen	-6933
▁justice	-6934
▁achieved	-6935
▁Erfahrung	-6936
▁structure	-6937
▁hy	-6938
▁ja	-6939
frei	-6940
osev	-6941
▁Ever	-6942
▁batt	-6943
▁publ	-6944
▁wind	-6945
versch	-6946
▁spend	-6947
prozess	-6948
zugehen	-6949
▁konfront	-6950
▁excessive	-6951
▁Bevölkerungs	-6952
▁Lateinamerika	-6953
''	-6954
The	-6955
ukt	-6956
▁193	-6957
▁ganze	-6958
streben	-6959
▁produced	-6960
▁Währungsfonds	-6961
lung	-6962
orgt	-6963
▁Lie	-6964
pidem	-6965
▁cross	-6966
▁round	-6967
▁daraus	-6968
isierten	-6969
kenntnis	-6970
ringerung	-6971
▁ungefähr	-6972
▁Ausbildung	-6973
erechtigkeit	-6974
▁Unsicherheit	-6975
ohle	-6976
oint	-6977
▁Assad	-6978
▁Sache	-6979
▁built	-6980
▁Libanon	-6981
▁Muslims	-6982
▁restrict	-6983
▁Beziehung	-6984
jad	-6985
yle	-6986
र्थ	-6987
eler	-6988
erte	-6989
▁Cour	-6990
▁Ohne	-6991
▁Over	-6992
▁fühl	-6993
▁Arten	-6994
▁herbe	-6995
igungen	-6996
▁Kalten	-6997
▁kleine	-6998
▁gehören	-6999
▁started	-7000
▁provides	-7001
▁Sal	-7002
quate	-7003
▁asked	-7004
▁study	-7005
leistung	-7006
▁Arbeiter	-7007
▁entweder	-7008
▁Aktivitäten	-7009
orb	-7010
oder	-7011
▁Beob	-7012
▁calls	-7013
▁becomes	-7014
▁Portugal	-7015
▁Rückkehr	-7016
▁Spannungen	-7017
▁Entwicklungen	-7018
ECD	-7019
enth	-7020
▁From	-7021
▁Tage	-7022
▁Wohn	-7023
▁goals	-7024
gencies	-7025
▁welfare	-7026
▁Unterschiede	-7027
zwe	-7028
▁PA	-7029
gent	-7030
▁Kan	-7031
▁Hoch	-7032
▁Raum	-7033
▁Sieg	-7034
▁game	-7035
▁pack	-7036
▁extent	-7037
▁Drittel	-7038
▁Journal	-7039
▁Vorauss	-7040
▁jüngste	-7041
▁abhängig	-7042
▁confront	-7043
▁regionalen	-7044
▁Ahmad	-7045
▁haupts	-7046
▁prison	-7047
▁himself	-7048
▁unseren	-7049
▁contract	-7050
unt	-7051
▁Hu	-7052
▁Os	-7053
▁40%	-7054
itial	-7055
▁ausz	-7056
▁front	-7057
▁analys	-7058
▁manage	-7059
▁adopted	-7060
▁comprom	-7061
industrie	-7062
▁Zwischen	-7063
▁überzeugen	-7064
▁Demokratien	-7065
oin	-7066
ole	-7067
gner	-7068
▁nimmt	-7069
▁shows	-7070
account	-7071
zeichen	-7072
▁Obamas	-7073
▁commod	-7074
▁gelang	-7075
investitionen	-7076
ibet	-7077
▁Kal	-7078
▁Kle	-7079
▁une	-7080
linge	-7081
▁türk	-7082
▁Linie	-7083
▁takes	-7084
▁Einheit	-7085
▁Finanzminister	-7086
üm	-7087
▁Ank	-7088
orpor	-7089
▁mand	-7090
▁prev	-7091
idency	-7092
▁explo	-7093
▁gains	-7094
▁langu	-7095
▁commercial	-7096
▁currencies	-7097
▁Versprechen	-7098
▁expectations	-7099
▁Mot	-7100
▁deg	-7101
▁Chile	-7102
▁aband	-7103
▁spent	-7104
▁Zweiten	-7105
▁Bewegung	-7106
▁capitalism	-7107
aler	-7108
gara	-7109
▁Nun	-7110
äumen	-7111
▁Laut	-7112
▁Singap	-7113
ferendum	-7114
▁bewegen	-7115
▁Likewise	-7116
▁anderswo	-7117
▁bedeuten	-7118
▁neighbor	-7119
tee	-7120
▁0.	-7121
führen	-7122
ördert	-7123
▁ethnic	-7124
▁Nachdem	-7125
▁organis	-7126
▁Experten	-7127
▁enormous	-7128
▁Potenzial	-7129
▁Verhältnis	-7130
▁activities	-7131
▁industries	-7132
▁französische	-7133
öße	-7134
▁Gar	-7135
▁Opt	-7136
▁lau	-7137
▁shif	-7138
indern	-7139
▁bound	-7140
▁saving	-7141
▁bureauc	-7142
▁Aufgrund	-7143
▁modernen	-7144
▁Nahrungsmittel	-7145
▁Fuß	-7146
▁tur	-7147
ilich	-7148
gelöst	-7149
ynamik	-7150
▁Angeb	-7151
▁Dabei	-7152
▁Schul	-7153
▁points	-7154
▁Studien	-7155
▁targets	-7156
völkerung	-7157
▁Dezember	-7158
▁erwartet	-7159
▁struggle	-7160
▁verstärkt	-7161
8,	-7162
xim	-7163
त्र	-7164
Amer	-7165
▁195	-7166
isted	-7167
▁lose	-7168
▁toler	-7169
▁tried	-7170
▁secure	-7171
▁various	-7172
▁efficient	-7173
▁University	-7174
▁ultimately	-7175
▁Regulierung	-7176
NA	-7177
lös	-7178
▁पह	-7179
▁ini	-7180
force	-7181
▁Prof	-7182
▁task	-7183
▁Still	-7184
century	-7185
▁Arabia	-7186
▁abroad	-7187
▁severe	-7188
▁shared	-7189
▁durchge	-7190
▁praktisch	-7191
▁fiel	-7192
▁Befür	-7193
▁beige	-7194
▁plans	-7195
handels	-7196
systems	-7197
▁Vision	-7198
▁gewiss	-7199
▁geraten	-7200
▁manchmal	-7201
▁ermöglicht	-7202
meid	-7203
öder	-7204
▁Kong	-7205
▁Hilfs	-7206
▁Teile	-7207
▁advoc	-7208
▁flows	-7209
▁troops	-7210
▁students	-7211
würdigkeit	-7212
▁regionale	-7213
ps	-7214
ope	-7215
▁ut	-7216
ague	-7217
view	-7218
afrika	-7219
▁plann	-7220
stances	-7221
▁retten	-7222
▁Konsens	-7223
▁Südkorea	-7224
▁betroffen	-7225
▁vergleich	-7226
▁erscheinen	-7227
pread	-7228
gungen	-7229
▁Abbas	-7230
steigen	-7231
▁Themen	-7232
▁compared	-7233
▁Umständen	-7234
▁einzelnen	-7235
organisation	-7236
▁konfrontiert	-7237
uba	-7238
▁DC	-7239
intens	-7240
ktiven	-7241
▁Camer	-7242
▁Trade	-7243
▁equal	-7244
▁Berlin	-7245
▁biolog	-7246
▁dienen	-7247
▁finally	-7248
▁seeking	-7249
▁withdra	-7250
▁außerdem	-7251
▁japanischen	-7252
▁Verringerung	-7253
▁fo	-7254
look	-7255
ruct	-7256
endit	-7257
reten	-7258
▁drop	-7259
▁Menge	-7260
▁Zweck	-7261
▁Erspar	-7262
▁bekämp	-7263
ffizienz	-7264
▁Brother	-7265
▁Defizit	-7266
▁weiterer	-7267
▁eigentlich	-7268
▁Produktivität	-7269
▁significantly	-7270
▁fä	-7271
ilie	-7272
▁Soll	-7273
▁darf	-7274
INGTON	-7275
folger	-7276
uverän	-7277
▁chron	-7278
▁kosten	-7279
▁pattern	-7280
ypotheken	-7281
▁gekommen	-7282
▁hundreds	-7283
▁deutschen	-7284
▁untergraben	-7285
rache	-7286
banken	-7287
drückt	-7288
▁surve	-7289
standen	-7290
▁Mechan	-7291
▁Because	-7292
idespread	-7293
▁Bekämpfung	-7294
nya	-7295
▁Sw	-7296
▁tö	-7297
rates	-7298
▁prol	-7299
▁faces	-7300
▁Malays	-7301
▁faster	-7302
▁Indiens	-7303
▁falling	-7304
▁Allgemein	-7305
▁permanent	-7306
▁derartigen	-7307
▁Arbeitnehmer	-7308
fin	-7309
▁OECD	-7310
▁beruht	-7311
▁prefer	-7312
▁wonach	-7313
▁Gesetze	-7314
▁Iranian	-7315
▁threats	-7316
▁Amtszeit	-7317
▁erklärte	-7318
▁reduzieren	-7319
▁Eind	-7320
▁Lohn	-7321
▁mere	-7322
▁ober	-7323
ktoren	-7324
▁Thail	-7325
▁partly	-7326
▁opinion	-7327
▁gestiegen	-7328
▁Arbeitsmarkt	-7329
▁1%	-7330
▁reve	-7331
▁absen	-7332
▁verfüg	-7333
▁abandon	-7334
▁Verständ	-7335
▁ausgehen	-7336
▁Vertreter	-7337
▁unilateral	-7338
की	-7339
eda	-7340
fach	-7341
ilem	-7342
iles	-7343
handel	-7344
wenden	-7345
wiegend	-7346
▁Versch	-7347
▁größer	-7348
▁rhetor	-7349
▁primary	-7350
▁befindet	-7351
▁sprechen	-7352
▁Wiederauf	-7353
▁gegenseit	-7354
▁genannten	-7355
▁strengthen	-7356
▁Pap	-7357
▁enl	-7358
ismen	-7359
aschen	-7360
igsten	-7361
▁Court	-7362
▁ermut	-7363
▁anstatt	-7364
▁übersch	-7365
▁contrary	-7366
▁happened	-7367
▁zurückge	-7368
▁regulatory	-7369
▁Di	-7370
cker	-7371
ihad	-7372
▁50%	-7373
Staat	-7374
▁safe	-7375
▁whom	-7376
▁etabl	-7377
tellekt	-7378
urities	-7379
▁funding	-7380
▁usually	-7381
▁December	-7382
▁Währungen	-7383
▁prospects	-7384
▁nationaler	-7385
▁Lebensmittel	-7386
▁nah	-7387
äuser	-7388
▁Char	-7389
▁enem	-7390
artige	-7391
▁heart	-7392
▁strik	-7393
bringen	-7394
▁Monate	-7395
▁sinken	-7396
▁Gründen	-7397
▁Verbrechen	-7398
▁Leistungsbilanz	-7399
ASH	-7400
tät	-7401
▁Sü	-7402
▁Mut	-7403
▁sud	-7404
▁hält	-7405
sichts	-7406
▁Phase	-7407
▁compre	-7408
▁Anleger	-7409
▁sources	-7410
ASHINGTON	-7411
▁berücksicht	-7412
teste	-7413
▁David	-7414
▁adopt	-7415
▁shown	-7416
▁&#160;	-7417
▁letzte	-7418
▁privat	-7419
▁gesehen	-7420
▁deutsche	-7421
▁property	-7422
▁deflation	-7423
▁principles	-7424
▁widespread	-7425
▁technological	-7426
oke	-7427
ört	-7428
▁err	-7429
▁sat	-7430
▁cell	-7431
reitet	-7432
▁Seine	-7433
▁befür	-7434
▁setzt	-7435
▁verur	-7436
▁depend	-7437
▁safety	-7438
▁steigern	-7439
▁Är	-7440
ency	-7441
▁decla	-7442
orthern	-7443
▁Kritik	-7444
▁Schlüssel	-7445
▁solutions	-7446
▁Ereignisse	-7447
▁WASHINGTON	-7448
▁vulnerable	-7449
wissenschaft	-7450
▁Verbündeten	-7451
रण	-7452
ahu	-7453
▁Cr	-7454
▁ey	-7455
grenz	-7456
▁Zuge	-7457
▁coal	-7458
iziert	-7459
▁Street	-7460
▁jungen	-7461
▁speech	-7462
▁nächste	-7463
▁Untersuch	-7464
▁collective	-7465
सा	-7466
izen	-7467
like	-7468
sein	-7469
▁Off	-7470
▁irak	-7471
lantic	-7472
▁prove	-7473
▁Völker	-7474
▁miteinander	-7475
▁kr	-7476
▁Spr	-7477
isely	-7478
▁acqu	-7479
▁body	-7480
▁upon	-7481
▁went	-7482
▁Reich	-7483
▁Verlust	-7484
▁Verluste	-7485
▁vernünft	-7486
▁Legitimität	-7487
▁Unterschied	-7488
्च	-7489
▁Naz	-7490
ature	-7491
orten	-7492
▁corre	-7493
isierte	-7494
▁voraus	-7495
▁Vereinbar	-7496
iable	-7497
▁Ital	-7498
▁Kauf	-7499
▁bomb	-7500
▁chem	-7501
▁dead	-7502
ündung	-7503
▁Klima	-7504
▁Leute	-7505
▁Namen	-7506
▁Power	-7507
▁Those	-7508
▁trend	-7509
▁trial	-7510
▁Bauern	-7511
▁Drogen	-7512
▁absence	-7513
▁Lockerung	-7514
▁ausgesetzt	-7515
▁तक	-7516
▁enj	-7517
▁zeit	-7518
iction	-7519
▁Libya	-7520
▁Rober	-7521
▁Andere	-7522
▁dominan	-7523
▁earlier	-7524
istischer	-7525
▁globaler	-7526
▁zunächst	-7527
▁Arbeitslosen	-7528
▁hauptsächlich	-7529
ga	-7530
ype	-7531
▁मह	-7532
odox	-7533
▁Job	-7534
▁Ter	-7535
geord	-7536
reffen	-7537
reland	-7538
uführen	-7539
ziellen	-7540
▁Leider	-7541
▁Republik	-7542
▁fighting	-7543
▁involved	-7544
▁encourage	-7545
▁niedriger	-7546
▁schneller	-7547
▁Engagement	-7548
▁eingesetzt	-7549
que	-7550
aeda	-7551
akan	-7552
▁Bol	-7553
losen	-7554
▁bemü	-7555
▁conv	-7556
▁nine	-7557
zielle	-7558
▁makro	-7559
▁meant	-7560
▁bemerk	-7561
▁selten	-7562
▁Forderungen	-7563
▁circumstances	-7564
wal	-7565
ican	-7566
▁erl	-7567
icted	-7568
kurse	-7569
steht	-7570
▁rele	-7571
reform	-7572
▁volat	-7573
▁angeht	-7574
▁fossil	-7575
▁vielmehr	-7576
▁democracies	-7577
usal	-7578
▁Sil	-7579
▁wan	-7580
▁Fonds	-7581
▁divid	-7582
▁hands	-7583
▁Parlaments	-7584
CE	-7585
hib	-7586
ica	-7587
▁Cy	-7588
anke	-7589
▁Rede	-7590
▁firm	-7591
▁phil	-7592
priate	-7593
▁Brenn	-7594
▁junge	-7595
▁möchte	-7596
▁unable	-7597
reserven	-7598
▁medizin	-7599
losigkeit	-7600
▁Venezuela	-7601
▁subsidies	-7602
▁vermutlich	-7603
▁Stattdessen	-7604
Arab	-7605
volle	-7606
▁Ents	-7607
▁Poliz	-7608
▁Trend	-7609
▁presidency	-7610
▁sovereignty	-7611
▁grundlegenden	-7612
ls	-7613
▁Mod	-7614
▁Mär	-7615
enter	-7616
ütter	-7617
income	-7618
▁Roman	-7619
▁jenen	-7620
▁symbol	-7621
▁Rohstoff	-7622
▁agencies	-7623
▁continent	-7624
▁Aussichten	-7625
▁instability	-7626
▁macroeconomic	-7627
्ध	-7628
vez	-7629
▁5%	-7630
▁ko	-7631
▁wa	-7632
abel	-7633
▁Huss	-7634
▁gepr	-7635
▁wage	-7636
nungen	-7637
ausende	-7638
▁Anders	-7639
▁bekann	-7640
entwickl	-7641
▁initial	-7642
▁ähnlich	-7643
▁improved	-7644
▁ordinary	-7645
▁restruct	-7646
▁psycholog	-7647
▁vorhanden	-7648
▁Forschungs	-7649
amin	-7650
greg	-7651
ifik	-7652
▁unp	-7653
▁Bünd	-7654
▁trig	-7655
gression	-7656
▁Ireland	-7657
▁Komprom	-7658
▁Regimes	-7659
▁Zweifel	-7660
▁focused	-7661
▁regimes	-7662
▁früheren	-7663
▁mindestens	-7664
▁Argentinien	-7665
▁Terroristen	-7666
▁Beschäftigung	-7667
▁wirtschaftlich	-7668
urg	-7669
में	-7670
aves	-7671
uens	-7672
▁Cal	-7673
▁dig	-7674
asing	-7675
icated	-7676
▁perce	-7677
▁models	-7678
▁Georgia	-7679
▁protests	-7680
▁refugees	-7681
bevölkerung	-7682
▁ausreichend	-7683
▁ausländischen	-7684
samm	-7685
ürger	-7686
▁Renten	-7687
▁bilden	-7688
▁Investment	-7689
▁possibility	-7690
▁vorgeschlagen	-7691
hte	-7692
धार	-7693
▁cancer	-7694
▁causes	-7695
▁running	-7696
▁Russians	-7697
▁consolid	-7698
▁communities	-7699
▁Regulierungs	-7700
uble	-7701
▁Anh	-7702
▁Fat	-7703
osoph	-7704
plies	-7705
▁Agenda	-7706
▁frühen	-7707
telligence	-7708
▁langfristig	-7709
este	-7710
▁hit	-7711
▁Frau	-7712
▁Wirk	-7713
▁alte	-7714
▁name	-7715
▁Prote	-7716
oldaten	-7717
▁Wochen	-7718
▁mostly	-7719
▁skills	-7720
▁anderes	-7721
▁einiger	-7722
▁gerecht	-7723
▁incomes	-7724
▁journal	-7725
▁erzielen	-7726
,"	-7727
▁la	-7728
agan	-7729
▁Bau	-7730
▁bege	-7731
▁ineff	-7732
▁worst	-7733
▁Hussein	-7734
programme	-7735
▁interven	-7736
▁beschleun	-7737
▁सु	-7738
itts	-7739
▁Sog	-7740
▁guten	-7741
▁dürfen	-7742
▁pursue	-7743
▁destabil	-7744
▁gehalten	-7745
▁Erfahrungen	-7746
▁finanzieren	-7747
ötz	-7748
Euro	-7749
gren	-7750
ikel	-7751
uels	-7752
▁Sym	-7753
▁Zur	-7754
▁lot	-7755
fähig	-7756
iring	-7757
▁1989	-7758
▁Hier	-7759
▁Noch	-7760
▁empf	-7761
▁amoun	-7762
▁belief	-7763
▁option	-7764
▁smaller	-7765
▁expendit	-7766
▁erscheint	-7767
▁entschieden	-7768
urt	-7769
bung	-7770
▁Nic	-7771
cting	-7772
▁Szen	-7773
▁Iraqi	-7774
anische	-7775
▁context	-7776
▁transfer	-7777
▁führenden	-7778
▁supported	-7779
▁transport	-7780
▁bewältigen	-7781
▁Regierungschefs	-7782
ahan	-7783
iforn	-7784
▁Leit	-7785
▁arms	-7786
▁Produkte	-7787
▁creditors	-7788
1%	-7789
vo	-7790
äts	-7791
kund	-7792
▁Hol	-7793
▁erh	-7794
▁syr	-7795
right	-7796
▁lies	-7797
▁forec	-7798
▁legen	-7799
▁oppos	-7800
▁Robert	-7801
▁Stelle	-7802
▁signal	-7803
▁treaty	-7804
▁zahlen	-7805
▁Schicks	-7806
▁Straßen	-7807
▁message	-7808
▁accounts	-7809
▁families	-7810
▁zentrale	-7811
legenheiten	-7812
▁manufacturing	-7813
TA	-7814
ला	-7815
eten	-7816
▁Sinn	-7817
▁wert	-7818
schutz	-7819
ukture	-7820
▁Liber	-7821
▁drugs	-7822
▁Nation	-7823
▁sought	-7824
▁Beitrag	-7825
▁Solidar	-7826
▁Treasury	-7827
▁designed	-7828
▁interess	-7829
▁specific	-7830
▁Überwach	-7831
ima	-7832
▁70	-7833
▁1999	-7834
▁Stal	-7835
▁Swed	-7836
etzungen	-7837
▁Märkten	-7838
▁depends	-7839
▁imports	-7840
▁eingesch	-7841
▁Kreditver	-7842
▁zukünftige	-7843
▁Instabilität	-7844
▁constitutional	-7845
ilm	-7846
▁सा	-7847
fect	-7848
ißen	-7849
linien	-7850
▁Dialog	-7851
▁crimes	-7852
▁Annahme	-7853
▁promise	-7854
▁zerstör	-7855
▁although	-7856
▁repeated	-7857
ustainable	-7858
▁Botschaft	-7859
▁Leistungen	-7860
▁darstellen	-7861
▁Kapitalismus	-7862
▁israelischen	-7863
▁Anstrengungen	-7864
▁ca	-7865
▁mur	-7866
ailed	-7867
going	-7868
power	-7869
▁capt	-7870
▁Front	-7871
▁aktiv	-7872
▁Abhäng	-7873
▁hunder	-7874
▁aufrech	-7875
▁raising	-7876
▁victims	-7877
▁activity	-7878
▁Vorschlag	-7879
▁bezeichnet	-7880
▁Verfassungs	-7881
son	-7882
▁Rad	-7883
ushar	-7884
▁analy	-7885
▁gewähl	-7886
▁enterpr	-7887
▁Rettungs	-7888
▁identity	-7889
▁verstärk	-7890
▁guarantee	-7891
▁funktioniert	-7892
SA	-7893
new	-7894
llos	-7895
rich	-7896
▁Frü	-7897
▁tell	-7898
▁Korean	-7899
▁Syrian	-7900
▁charge	-7901
▁gehört	-7902
▁Spitzen	-7903
isierungs	-7904
▁trotzdem	-7905
▁ähnliche	-7906
▁Innovation	-7907
appe	-7908
▁nom	-7909
▁Fest	-7910
▁Mich	-7911
▁base	-7912
steuer	-7913
▁Waren	-7914
▁oblig	-7915
▁relie	-7916
hensive	-7917
ivalent	-7918
▁quarter	-7919
▁genommen	-7920
▁authoritarian	-7921
PP	-7922
orre	-7923
▁bir	-7924
▁nam	-7925
▁क्ष	-7926
arbon	-7927
hnung	-7928
▁Hist	-7929
kehren	-7930
▁giving	-7931
▁worked	-7932
demokrat	-7933
▁bailout	-7934
▁bemerkens	-7935
▁erheblich	-7936
▁agreements	-7937
▁Nachrichten	-7938
▁credibility	-7939
orit	-7940
▁Min	-7941
▁Blick	-7942
▁Kohle	-7943
▁Sogar	-7944
▁sagte	-7945
▁anyone	-7946
▁factor	-7947
▁farmers	-7948
▁percent	-7949
▁erweisen	-7950
▁remained	-7951
▁öffentlich	-7952
या	-7953
pap	-7954
▁ही	-7955
erne	-7956
innt	-7957
kore	-7958
▁join	-7959
▁Umfeld	-7960
▁realen	-7961
defizite	-7962
zeichnet	-7963
▁arrange	-7964
▁diseases	-7965
▁promises	-7966
▁proposal	-7967
SE	-7968
fir	-7969
▁Ts	-7970
eind	-7971
emin	-7972
iner	-7973
turn	-7974
unah	-7975
cknow	-7976
▁zust	-7977
▁Demon	-7978
▁Sudan	-7979
▁clean	-7980
▁Vorteil	-7981
▁schwach	-7982
▁trigger	-7983
▁revenues	-7984
▁verfolgt	-7985
▁Diskussion	-7986
▁candidates	-7987
▁Wissenschaftler	-7988
kong	-7989
▁mob	-7990
▁wün	-7991
addaf	-7992
itude	-7993
risis	-7994
▁goes	-7995
▁hour	-7996
▁told	-7997
ifying	-7998
ishing	-7999
▁views	-8000
▁During	-8001
▁Person	-8002
▁Systems	-8003
icherungs	-8004
▁Prinzipien	-8005
orm	-8006
deck	-8007
ille	-8008
▁ehr	-8009
urspr	-8010
▁Heim	-8011
▁gold	-8012
aketen	-8013
▁light	-8014
▁meine	-8015
setzung	-8016
▁convin	-8017
▁Projekt	-8018
▁trading	-8019
▁Programme	-8020
▁electoral	-8021
▁household	-8022
▁resulting	-8023
▁imbalances	-8024
▁Staatsanleihen	-8025
▁traditionellen	-8026
abwe	-8027
aust	-8028
▁Pan	-8029
▁Grenze	-8030
▁contro	-8031
▁pragmat	-8032
▁secular	-8033
▁stellte	-8034
▁seriously	-8035
▁associated	-8036
▁Erwartungen	-8037
iny	-8038
▁Ak	-8039
äten	-8040
▁Hal	-8041
▁hon	-8042
holen	-8043
achter	-8044
atisch	-8045
laufen	-8046
▁final	-8047
▁Mushar	-8048
▁latest	-8049
ursprüng	-8050
▁bankers	-8051
▁biggest	-8052
apazitäten	-8053
▁Erwärmung	-8054
▁Gläubiger	-8055
▁construction	-8056
hof	-8057
ieth	-8058
otes	-8059
time	-8060
teenth	-8061
▁Tibet	-8062
▁Russen	-8063
▁bubble	-8064
▁kaufen	-8065
▁Ausnahme	-8066
▁Consider	-8067
▁disaster	-8068
▁received	-8069
▁Einnahmen	-8070
▁interpret	-8071
▁strukture	-8072
▁everything	-8073
▁verursacht	-8074
▁Fähigkeiten	-8075
Ad	-8076
Is	-8077
mans	-8078
orte	-8079
▁Kir	-8080
▁erf	-8081
▁मिल	-8082
ented	-8083
▁Oste	-8084
▁city	-8085
ampagne	-8086
istence	-8087
kennung	-8088
standing	-8089
▁Bestand	-8090
▁alliance	-8091
▁combined	-8092
▁controls	-8093
▁discover	-8094
▁ursprüng	-8095
ohlenstoff	-8096
atie	-8097
igor	-8098
uchs	-8099
▁Ort	-8100
▁Wen	-8101
works	-8102
▁Worten	-8103
▁diskut	-8104
▁execut	-8105
▁musste	-8106
▁leverage	-8107
▁gefährlich	-8108
üp	-8109
ारी	-8110
reib	-8111
anders	-8112
▁March	-8113
▁range	-8114
▁einzig	-8115
▁fiskal	-8116
▁multip	-8117
▁raised	-8118
▁Kindern	-8119
▁helping	-8120
weiterung	-8121
▁greatest	-8122
▁generally	-8123
▁organization	-8124
▁normalerweise	-8125
▁Landwirtschaft	-8126
try	-8127
▁500	-8128
▁Mao	-8129
ießen	-8130
▁Bern	-8131
▁Juli	-8132
oppelt	-8133
▁Human	-8134
▁echte	-8135
▁acknow	-8136
▁festge	-8137
▁affairs	-8138
▁candidate	-8139
II	-8140
hes	-8141
uly	-8142
▁Ken	-8143
▁emb	-8144
ausch	-8145
state	-8146
luscon	-8147
▁Beteil	-8148
▁Gegner	-8149
▁extern	-8150
ulierung	-8151
▁Familie	-8152
▁operations	-8153
▁asiatischen	-8154
bew	-8155
eks	-8156
xis	-8157
iang	-8158
tere	-8159
▁sel	-8160
▁जिस	-8161
igend	-8162
istenz	-8163
▁stage	-8164
▁impose	-8165
▁lebens	-8166
▁places	-8167
▁implies	-8168
▁Arbeitskräfte	-8169
▁ep	-8170
änge	-8171
▁Dev	-8172
▁hom	-8173
▁Falls	-8174
▁Franz	-8175
▁Kyoto	-8176
▁distr	-8177
▁verhe	-8178
▁untern	-8179
▁Hindern	-8180
▁erreich	-8181
▁Vorgehen	-8182
▁bezahlen	-8183
▁weakness	-8184
▁uncertainty	-8185
▁Gleichzeitig	-8186
▁Intervention	-8187
irac	-8188
build	-8189
▁Wege	-8190
wohner	-8191
▁Kolle	-8192
▁Woche	-8193
▁attemp	-8194
▁Cameron	-8195
▁Souverän	-8196
▁darstellt	-8197
▁argumentieren	-8198
▁Exp	-8199
onald	-8200
▁susp	-8201
▁zero	-8202
tleren	-8203
▁2008,	-8204
▁lernen	-8205
▁acceler	-8206
▁compens	-8207
▁Auslands	-8208
▁Berluscon	-8209
▁dictators	-8210
forderungen	-8211
▁efficiency	-8212
reb	-8213
▁चाह	-8214
utage	-8215
▁entspr	-8216
▁mainly	-8217
▁Behaupt	-8218
2,	-8219
▁3%	-8220
▁Wür	-8221
▁vert	-8222
▁Every	-8223
▁Fatah	-8224
▁frequ	-8225
übersch	-8226
▁schien	-8227
▁Nuklear	-8228
▁niemals	-8229
▁Zunächst	-8230
ordination	-8231
▁Notenbank	-8232
▁diplomacy	-8233
▁evolution	-8234
▁verringert	-8235
ören	-8236
▁Wun	-8237
erten	-8238
▁Vier	-8239
▁ment	-8240
gesetz	-8241
ziplin	-8242
▁ideal	-8243
behörde	-8244
▁aufgeb	-8245
▁closer	-8246
▁nieder	-8247
wegungen	-8248
▁beenden	-8249
▁medical	-8250
▁Defizite	-8251
▁Thailand	-8252
▁Scheitern	-8253
▁conflicts	-8254
▁exception	-8255
▁religiösen	-8256
▁Abhängigkeit	-8257
▁menschlichen	-8258
▁strategische	-8259
.&	-8260
कि	-8261
gült	-8262
▁20.	-8263
▁30%	-8264
▁Kat	-8265
trans	-8266
uries	-8267
▁geld	-8268
▁shock	-8269
▁देशों	-8270
▁killed	-8271
▁meinen	-8272
▁However	-8273
▁measure	-8274
▁Überdies	-8275
▁schließen	-8276
GO	-8277
imp	-8278
▁lif	-8279
iegel	-8280
▁Dass	-8281
▁fert	-8282
fällig	-8283
▁Sorge	-8284
▁innen	-8285
▁space	-8286
▁visit	-8287
porters	-8288
weitung	-8289
▁decided	-8290
▁genauso	-8291
sprechend	-8292
▁universal	-8293
▁electricity	-8294
▁liberalization	-8295
ador	-8296
kret	-8297
länd	-8298
oler	-8299
▁Eth	-8300
folged	-8301
▁cover	-8302
ocratic	-8303
▁machte	-8304
▁unless	-8305
▁solcher	-8306
▁Anzeichen	-8307
▁aggressive	-8308
▁Katastrophe	-8309
▁Gerechtigkeit	-8310
RIS	-8311
aya	-8312
ibr	-8313
ula	-8314
yed	-8315
ains	-8316
0,000	-8317
hoben	-8318
▁Also	-8319
▁Schr	-8320
▁barr	-8321
▁gave	-8322
▁accep	-8323
▁diagn	-8324
▁plötz	-8325
▁regel	-8326
▁Schwer	-8327
▁denken	-8328
▁lesson	-8329
▁nahezu	-8330
höhungen	-8331
▁freilich	-8332
▁practice	-8333
▁Problemen	-8334
▁condition	-8335
folgedessen	-8336
▁Herrschaft	-8337
▁Republican	-8338
▁angemessen	-8339
▁initiative	-8340
▁Veränderung	-8341
▁territorial	-8342
▁Staatsschulden	-8343
▁Verpflichtungen	-8344
ürf	-8345
qual	-8346
▁gere	-8347
▁quite	-8348
▁Geheim	-8349
▁numbers	-8350
▁borrowing	-8351
▁entscheidender	-8352
nungs	-8353
▁Dazu	-8354
unahme	-8355
▁watch	-8356
systeme	-8357
▁deeply	-8358
▁proper	-8359
▁imposed	-8360
▁Stärkung	-8361
▁gewissen	-8362
▁beschränkt	-8363
▁considered	-8364
▁Verständnis	-8365
▁makroökonom	-8366
öff	-8367
igem	-8368
krie	-8369
▁März	-8370
zahlen	-8371
▁oppon	-8372
▁höchst	-8373
▁sowjet	-8374
▁Wirkung	-8375
▁getting	-8376
▁learned	-8377
▁announced	-8378
▁Democratic	-8379
▁Organization	-8380
▁Vermögenswerte	-8381
irn	-8382
wes	-8383
▁Wo	-8384
ette	-8385
▁Zuf	-8386
▁quo	-8387
unger	-8388
▁Frem	-8389
▁mögen	-8390
▁sofort	-8391
irtschaft	-8392
▁entfernt	-8393
▁recognized	-8394
▁beigetragen	-8395
▁Glaubwürdigkeit	-8396
SS	-8397
ास्थ	-8398
▁mach	-8399
▁rare	-8400
▁type	-8401
amente	-8402
▁elite	-8403
▁capita	-8404
jährigen	-8405
▁beschäft	-8406
▁Deutschlands	-8407
▁strategischen	-8408
Ein	-8409
lack	-8410
last	-8411
osis	-8412
▁Kind	-8413
ätzung	-8414
▁Under	-8415
▁react	-8416
▁übern	-8417
▁ausgeb	-8418
▁played	-8419
▁stress	-8420
▁poorest	-8421
▁Vladimir	-8422
▁Gespräche	-8423
▁entscheidende	-8424
kons	-8425
whel	-8426
ügen	-8427
werke	-8428
mechan	-8429
▁Wunsch	-8430
▁Communist	-8431
▁concerned	-8432
▁niedrigen	-8433
▁suffering	-8434
▁japanische	-8435
▁Bereitschaft	-8436
lime	-8437
▁genu	-8438
folgen	-8439
lichte	-8440
▁freie	-8441
▁hoher	-8442
▁veran	-8443
▁Though	-8444
gewichte	-8445
▁Dollars	-8446
▁Turkish	-8447
▁restore	-8448
▁sharply	-8449
strategie	-8450
▁richtige	-8451
▁sustained	-8452
▁iranischen	-8453
▁scientists	-8454
▁üb	-8455
umul	-8456
▁WTO	-8457
▁Maße	-8458
▁cust	-8459
▁sell	-8460
▁sout	-8461
iately	-8462
▁ready	-8463
▁unpre	-8464
▁weeks	-8465
▁meiner	-8466
itiativen	-8467
▁Hongkong	-8468
▁erfüllen	-8469
iete	-8470
▁Mai	-8471
▁2020	-8472
▁AIDS	-8473
▁Mass	-8474
ास्थ्य	-8475
▁Richt	-8476
▁looks	-8477
▁sharp	-8478
▁defend	-8479
▁erwiesen	-8480
▁language	-8481
▁Institute	-8482
▁Kontinent	-8483
▁effizient	-8484
▁expensive	-8485
▁precisely	-8486
▁griechischen	-8487
▁participation	-8488
-8	-8489
unk	-8490
▁Sä	-8491
fäll	-8492
icip	-8493
▁ged	-8494
ritts	-8495
▁Aner	-8496
▁hart	-8497
▁unre	-8498
▁1980’	-8499
▁behin	-8500
ermaßen	-8501
prochen	-8502
▁Dynamik	-8503
richtungen	-8504
▁Schicksal	-8505
▁movements	-8506
▁verwendet	-8507
▁legislation	-8508
▁Außenminister	-8509
vis	-8510
care	-8511
▁1950	-8512
▁wish	-8513
▁debts	-8514
▁drive	-8515
▁rural	-8516
holders	-8517
▁erweit	-8518
▁garant	-8519
▁indire	-8520
▁managed	-8521
iferation	-8522
▁Ausweitung	-8523
▁bestehenden	-8524
▁zusätzliche	-8525
▁Verteidigung	-8526
▁größtenteils	-8527
▁quantitative	-8528
3,	-8529
CC	-8530
mel	-8531
श्व	-8532
▁Ru	-8533
ergie	-8534
leite	-8535
llung	-8536
▁Bang	-8537
▁Mosk	-8538
brauch	-8539
▁breit	-8540
▁court	-8541
▁Chirac	-8542
▁hardly	-8543
▁müsste	-8544
▁sudden	-8545
nachfrage	-8546
technolog	-8547
▁Religion	-8548
▁Soldaten	-8549
▁begonnen	-8550
▁Indonesia	-8551
bedingungen	-8552
▁80	-8553
üren	-8554
▁Our	-8555
icken	-8556
▁ließ	-8557
udgets	-8558
▁exerc	-8559
▁richtig	-8560
▁Identität	-8561
▁schlimmer	-8562
▁Hypotheken	-8563
▁allgemeinen	-8564
ूर्	-8565
▁Sm	-8566
▁weg	-8567
▁armed	-8568
▁ruling	-8569
▁schwäch	-8570
▁Einigung	-8571
▁marginal	-8572
▁everywhere	-8573
ipel	-8574
kurb	-8575
▁kom	-8576
▁Brut	-8577
▁Juni	-8578
leiten	-8579
▁PARIS	-8580
▁adapt	-8581
▁skept	-8582
zeugung	-8583
▁Faktor	-8584
▁Januar	-8585
▁easing	-8586
▁lautet	-8587
Wachstum	-8588
▁schools	-8589
sequenzen	-8590
▁entirely	-8591
▁priority	-8592
▁Ökonomie	-8593
▁positions	-8594
4,	-8595
aker	-8596
fehl	-8597
oret	-8598
▁add	-8599
inger	-8600
tered	-8601
▁Erst	-8602
riften	-8603
▁Never	-8604
▁sonst	-8605
führten	-8606
▁vertra	-8607
▁broader	-8608
▁highest	-8609
▁verteid	-8610
produktion	-8611
▁angeblich	-8612
▁Steigerung	-8613
▁terrorists	-8614
▁populations	-8615
▁schwieriger	-8616
▁beeinflussen	-8617
Administration	-8618
▁Universitäten	-8619
-,	-8620
grad	-8621
▁Komb	-8622
▁Größe	-8623
▁House	-8624
▁depos	-8625
▁faith	-8626
▁house	-8627
▁verwe	-8628
glichen	-8629
▁Entsch	-8630
▁Sorgen	-8631
▁Städte	-8632
▁hoffen	-8633
▁tenden	-8634
▁constit	-8635
▁pension	-8636
▁Verbreitung	-8637
▁appropriate	-8638
▁ce	-8639
▁हु	-8640
ping	-8641
üste	-8642
▁Gel	-8643
▁ade	-8644
weile	-8645
▁July	-8646
▁cash	-8647
▁Moral	-8648
▁hängt	-8649
achtung	-8650
▁reveal	-8651
▁wollte	-8652
ktivität	-8653
▁entrepr	-8654
▁Transpar	-8655
▁peripher	-8656
▁rhetoric	-8657
▁verändern	-8658
▁considerable	-8659
क्त	-8660
▁Ho	-8661
falt	-8662
icle	-8663
uers	-8664
ugos	-8665
ücke	-8666
▁trib	-8667
govern	-8668
idents	-8669
ierend	-8670
mitted	-8671
▁degree	-8672
▁exceed	-8673
▁müssten	-8674
▁receive	-8675
▁absolute	-8676
▁ehemalige	-8677
▁estimated	-8678
▁Verbindungen	-8679
uous	-8680
▁Mik	-8681
▁लेक	-8682
▁Kopf	-8683
▁acht	-8684
▁Progn	-8685
▁immen	-8686
▁senior	-8687
▁emerged	-8688
▁kämpfen	-8689
▁leaving	-8690
▁mussten	-8691
▁violent	-8692
▁Überein	-8693
▁führende	-8694
▁Ansichten	-8695
▁schlechte	-8696
▁entschlossen	-8697
sätz	-8698
stood	-8699
▁Denk	-8700
▁Wort	-8701
▁gesp	-8702
▁ones	-8703
▁faced	-8704
fordert	-8705
▁January	-8706
▁autorit	-8707
▁allowing	-8708
▁overwhel	-8709
▁peaceful	-8710
▁angesehen	-8711
▁ähnlicher	-8712
▁स्वास्थ्य	-8713
▁verstärken	-8714
▁comprehensive	-8715
arr	-8716
get	-8717
्री	-8718
fron	-8719
▁60%	-8720
▁Two	-8721
▁स्थ	-8722
adays	-8723
▁Abst	-8724
▁Beam	-8725
▁Iron	-8726
▁outc	-8727
gruppe	-8728
tliche	-8729
▁teach	-8730
▁werde	-8731
▁Gefäng	-8732
▁choose	-8733
▁Another	-8734
▁dennoch	-8735
▁Leistung	-8736
▁believed	-8737
▁Parliament	-8738
▁entreprene	-8739
▁Konsequenzen	-8740
▁conventional	-8741
irm	-8742
isf	-8743
▁(1	-8744
▁Mor	-8745
aktiv	-8746
peten	-8747
läufig	-8748
▁desire	-8749
▁findet	-8750
▁Muslime	-8751
wachstums	-8752
▁scenario	-8753
▁bekämpfen	-8754
▁continuing	-8755
▁inevitable	-8756
dex	-8757
ente	-8758
kunft	-8759
▁dari	-8760
ienste	-8761
modell	-8762
▁seven	-8763
▁mittler	-8764
▁Islamist	-8765
▁bestimmen	-8766
▁geschehen	-8767
▁ministers	-8768
▁otherwise	-8769
▁intelligence	-8770
गी	-8771
uls	-8772
gere	-8773
idak	-8774
▁Erw	-8775
▁saw	-8776
istet	-8777
usive	-8778
ancing	-8779
ieller	-8780
▁blame	-8781
▁battle	-8782
▁deaths	-8783
▁Malaysia	-8784
▁launched	-8785
stellungen	-8786
▁überzeugt	-8787
▁aufzubauen	-8788
▁Menschenrechts	-8789
oods	-8790
oßen	-8791
▁Kur	-8792
▁Rec	-8793
scher	-8794
▁1998	-8795
▁akan	-8796
▁neun	-8797
making	-8798
▁Techn	-8799
▁lines	-8800
▁monit	-8801
▁appeal	-8802
▁Malaria	-8803
▁Millenn	-8804
▁fordern	-8805
▁einzigen	-8806
▁slowdown	-8807
▁demograph	-8808
▁virtually	-8809
▁Ökonomien	-8810
▁adjustment	-8811
▁contribute	-8812
▁underlying	-8813
▁destruction	-8814
▁islamischen	-8815
▁verpflichtet	-8816
▁Produktivitäts	-8817
▁27	-8818
itel	-8819
uell	-8820
▁veh	-8821
scale	-8822
▁Anti	-8823
▁June	-8824
▁Löhne	-8825
▁könne	-8826
Politik	-8827
ischung	-8828
▁Besuch	-8829
▁Heimat	-8830
▁Libyen	-8831
▁jemals	-8832
▁gefallen	-8833
▁profound	-8834
▁Wirklichkeit	-8835
▁distribution	-8836
▁Beschäftigungs	-8837
45	-8838
ाप	-8839
्म	-8840
ाली	-8841
▁90	-8842
▁She	-8843
▁korr	-8844
▁oben	-8845
Europe	-8846
▁Jetzt	-8847
▁Treib	-8848
▁knows	-8849
▁Großen	-8850
▁Philipp	-8851
▁endlich	-8852
▁friends	-8853
▁changing	-8854
▁religion	-8855
▁möglichen	-8856
▁Änderungen	-8857
▁Kommunismus	-8858
▁Unternehmer	-8859
▁entscheidend	-8860
oß	-8861
▁3.	-8862
netz	-8863
olar	-8864
▁irr	-8865
ables	-8866
loyed	-8867
ürzen	-8868
▁Meer	-8869
rokrat	-8870
▁ended	-8871
▁Studie	-8872
▁Gericht	-8873
▁promised	-8874
▁jeweiligen	-8875
▁Constitution	-8876
दा	-8877
üche	-8878
▁Non	-8879
▁shr	-8880
▁लोग	-8881
▁Oder	-8882
▁beiz	-8883
ädchen	-8884
▁Boliv	-8885
▁Hause	-8886
▁fears	-8887
schicht	-8888
▁Kontro	-8889
zeichnen	-8890
▁payments	-8891
▁determined	-8892
▁resistance	-8893
▁Souveränität	-8894
KP	-8895
iot	-8896
pet	-8897
▁11.	-8898
▁sil	-8899
▁Fore	-8900
▁rück	-8901
▁trag	-8902
▁wirks	-8903
▁प्रति	-8904
kräften	-8905
▁modest	-8906
American	-8907
▁brachte	-8908
▁prepared	-8909
▁southern	-8910
▁verändert	-8911
▁entspricht	-8912
▁Anerkennung	-8913
▁offiziellen	-8914
▁politisches	-8915
ani	-8916
rief	-8917
ätzt	-8918
inish	-8919
iumph	-8920
osing	-8921
proje	-8922
▁Fünf	-8923
▁pace	-8924
iments	-8925
proble	-8926
▁forms	-8927
▁rival	-8928
▁ausger	-8929
▁narrow	-8930
▁holding	-8931
▁äußerst	-8932
▁patients	-8933
▁vertreten	-8934
▁nachhaltige	-8935
▁partnership	-8936
ieß	-8937
▁$3	-8938
amenei	-8939
schung	-8940
▁blood	-8941
mitteln	-8942
▁distin	-8943
▁steigt	-8944
etheless	-8945
itischen	-8946
schaffen	-8947
▁ongoing	-8948
entlichen	-8949
▁moderate	-8950
▁commitments	-8951
abr	-8952
ala	-8953
iest	-8954
mert	-8955
äden	-8956
▁tim	-8957
▁Verz	-8958
▁gepl	-8959
▁Güter	-8960
▁uncon	-8961
olution	-8962
▁compon	-8963
▁double	-8964
▁frustr	-8965
▁sieben	-8966
▁useful	-8967
▁Senkung	-8968
▁analysis	-8969
▁investig	-8970
▁relevant	-8971
▁tensions	-8972
▁undermine	-8973
▁productive	-8974
▁steigenden	-8975
▁umfassende	-8976
▁Subventionen	-8977
▁parliamentary	-8978
spe	-8979
which	-8980
ziele	-8981
▁Flug	-8982
▁bear	-8983
▁resc	-8984
▁stay	-8985
airman	-8986
▁vorge	-8987
▁चाहिए	-8988
▁Gewerk	-8989
▁wanted	-8990
lemented	-8991
▁revenue	-8992
▁vorüber	-8993
▁whereas	-8994
▁overcome	-8995
▁verschle	-8996
▁Priorität	-8997
▁Studenten	-8998
▁economist	-8999
▁temporary	-9000
entwicklung	-9001
▁allgemeine	-9002
▁zunehmende	-9003
▁conservative	-9004
▁Infolgedessen	-9005
;&	-9006
ängst	-9007
▁Erdo	-9008
▁Here	-9009
policy	-9010
▁remov	-9011
▁versp	-9012
▁zivil	-9013
▁manipul	-9014
▁herrscht	-9015
▁imperial	-9016
▁Institution	-9017
▁Klimawandels	-9018
▁demonstrated	-9019
▁Nationalismus	-9020
▁Industrieländer	-9021
5,	-9022
Er	-9023
iant	-9024
▁meth	-9025
▁fällt	-9026
▁gemäß	-9027
▁obser	-9028
▁Normal	-9029
▁Schlag	-9030
▁decide	-9031
▁dengan	-9032
▁murder	-9033
▁Westens	-9034
▁experts	-9035
strumente	-9036
▁presence	-9037
präsidenten	-9038
▁regulators	-9039
▁Finanzsystem	-9040
CO	-9041
ana	-9042
lar	-9043
▁Grad	-9044
▁Repr	-9045
▁zugr	-9046
▁Third	-9047
▁worry	-9048
ifellos	-9049
▁danach	-9050
▁twenty	-9051
cedented	-9052
usstsein	-9053
▁Bürgern	-9054
▁facilit	-9055
▁benötigt	-9056
▁includes	-9057
▁zugrunde	-9058
▁Wahlkampf	-9059
atastrophen	-9060
▁schlechter	-9061
▁Rechtsstaat	-9062
▁öffentlicher	-9063
▁Währungsunion	-9064
Be	-9065
IA	-9066
berg	-9067
olas	-9068
▁enth	-9069
esents	-9070
istans	-9071
▁Chaos	-9072
▁tools	-9073
ichtbar	-9074
▁Belast	-9075
▁Raketen	-9076
▁Theorie	-9077
▁options	-9078
▁wirksam	-9079
▁declared	-9080
▁reported	-9081
▁Fundament	-9082
▁verbreite	-9083
▁westliche	-9084
▁wiederher	-9085
▁Frankreichs	-9086
▁Kombination	-9087
▁agricultural	-9088
En	-9089
जी	-9090
cers	-9091
attet	-9092
▁1991	-9093
▁Blut	-9094
▁kill	-9095
chtern	-9096
ichtete	-9097
▁Asiens	-9098
▁Greensp	-9099
▁concept	-9100
▁cutting	-9101
▁equally	-9102
▁profits	-9103
▁Zeitraum	-9104
▁bestimmte	-9105
▁erfordern	-9106
▁Politikern	-9107
▁historischen	-9108
▁unprecedented	-9109
Gen	-9110
enk	-9111
not	-9112
ading	-9113
astro	-9114
kehrt	-9115
pruch	-9116
itness	-9117
▁Beide	-9118
▁Grenz	-9119
bedingt	-9120
▁easier	-9121
ventions	-9122
▁Protest	-9123
▁choices	-9124
▁solidar	-9125
▁getroffen	-9126
▁Beobachter	-9127
▁Steuerzahl	-9128
▁securities	-9129
▁vollständig	-9130
aida	-9131
▁Dok	-9132
▁अनु	-9133
▁Bosn	-9134
▁Rend	-9135
▁Wird	-9136
selben	-9137
trächt	-9138
▁Irland	-9139
▁Stabil	-9140
▁Stärke	-9141
▁Wertpap	-9142
▁collaps	-9143
▁divided	-9144
▁manchen	-9145
▁offered	-9146
▁training	-9147
erhöhungen	-9148
▁Musharraf	-9149
▁steigende	-9150
▁combination	-9151
öm	-9152
ibe	-9153
urf	-9154
भाव	-9155
▁3,	-9156
▁rap	-9157
agers	-9158
ieben	-9159
igert	-9160
▁Eing	-9161
▁team	-9162
addafi	-9163
ilemma	-9164
▁Elite	-9165
▁crime	-9166
alismus	-9167
▁active	-9168
▁Gewinne	-9169
▁enlarge	-9170
▁letzter	-9171
▁accepted	-9172
▁Gleichgewicht	-9173
OS	-9174
▁ड	-9175
ühm	-9176
रिक	-9177
jing	-9178
▁fat	-9179
athem	-9180
letzt	-9181
uting	-9182
ुनिया	-9183
▁Sach	-9184
▁Soft	-9185
▁sorg	-9186
▁cheap	-9187
▁disor	-9188
▁kamen	-9189
itation	-9190
wechsel	-9191
▁Besitz	-9192
▁preced	-9193
▁ergeben	-9194
▁mangeln	-9195
▁geringer	-9196
▁commodity	-9197
ंग	-9198
▁hol	-9199
glück	-9200
▁Chef	-9201
▁Wind	-9202
▁schem	-9203
▁works	-9204
▁Aufbau	-9205
▁Bedürf	-9206
▁superv	-9207
schlägen	-9208
▁Marktes	-9209
▁anderem	-9210
▁beruhen	-9211
▁studies	-9212
▁Bedenken	-9213
▁nationalism	-9214
unst	-9215
ाष्ट	-9216
▁Then	-9217
▁arch	-9218
atures	-9219
entrum	-9220
punkte	-9221
ाष्ट्र	-9222
▁inher	-9223
zbollah	-9224
▁Rather	-9225
freiheit	-9226
▁Polizei	-9227
▁Systeme	-9228
▁Anhänger	-9229
▁Energien	-9230
▁Georgien	-9231
▁dramatic	-9232
▁administr	-9233
▁perceived	-9234
▁practices	-9235
▁Diplomatie	-9236
▁potentially	-9237
▁Internationale	-9238
do	-9239
ंध	-9240
स्थ	-9241
ाले	-9242
▁Moh	-9243
orted	-9244
▁Tsch	-9245
▁gone	-9246
aktion	-9247
gewalt	-9248
▁kolle	-9249
ference	-9250
▁Widers	-9251
▁dialog	-9252
▁medium	-9253
▁owners	-9254
▁spielt	-9255
▁suchen	-9256
▁Angebot	-9257
▁Zunahme	-9258
▁generate	-9259
▁ergreifen	-9260
▁Berlusconi	-9261
▁eingeführt	-9262
▁proportion	-9263
▁verhindert	-9264
▁verschiedene	-9265
Em	-9266
arsh	-9267
soft	-9268
▁Est	-9269
▁Haf	-9270
▁bott	-9271
▁sort	-9272
chnung	-9273
▁Absch	-9274
▁näher	-9275
▁ägypt	-9276
theless	-9277
▁Aktion	-9278
▁Umgang	-9279
▁accomp	-9280
▁revers	-9281
▁Flüchtl	-9282
▁Städten	-9283
▁präsent	-9284
▁returns	-9285
▁schmerz	-9286
▁widersp	-9287
▁Proteste	-9288
▁bankrupt	-9289
▁twentieth	-9290
▁untersuch	-9291
▁conference	-9292
▁immigrants	-9293
▁objectives	-9294
▁regulations	-9295
lare	-9296
▁gir	-9297
stanz	-9298
▁Rich	-9299
weiten	-9300
▁eight	-9301
▁Stalin	-9302
▁Zahlen	-9303
▁digital	-9304
▁gezogen	-9305
▁treiben	-9306
inational	-9307
▁credible	-9308
▁Verfahren	-9309
▁umgesetzt	-9310
▁umzusetzen	-9311
▁initiatives	-9312
",	-9313
ieb	-9314
mess	-9315
▁esc	-9316
▁mel	-9317
ograf	-9318
▁list	-9319
▁stem	-9320
▁allzu	-9321
▁desto	-9322
▁truly	-9323
lichten	-9324
▁Gefahren	-9325
▁Palästin	-9326
▁civilian	-9327
▁ensuring	-9328
▁occurred	-9329
▁outcomes	-9330
▁whatever	-9331
▁Ölpreise	-9332
▁Anpassung	-9333
▁compromise	-9334
▁understood	-9335
▁Generationen	-9336
▁Entscheidungs	-9337
▁sicherzustellen	-9338
mus	-9339
ruh	-9340
▁हम	-9341
käuf	-9342
▁300	-9343
▁Sin	-9344
▁kost	-9345
▁ties	-9346
aganda	-9347
lusion	-9348
▁Commit	-9349
▁Manche	-9350
▁Reagan	-9351
▁fühlen	-9352
▁relief	-9353
▁robust	-9354
▁Devisen	-9355
▁Sprache	-9356
▁führten	-9357
▁aufrecht	-9358
▁Hisbollah	-9359
▁promoting	-9360
▁überwinden	-9361
ymp	-9362
▁Hit	-9363
▁Lab	-9364
▁High	-9365
▁allm	-9366
▁enjoy	-9367
▁ratio	-9368
▁taxpay	-9369
▁Handeln	-9370
▁lessons	-9371
▁übermäß	-9372
schriften	-9373
verteilung	-9374
▁Hezbollah	-9375
▁Koalition	-9376
▁technical	-9377
▁stattfinden	-9378
▁Ja	-9379
eden	-9380
▁191	-9381
▁Alex	-9382
führte	-9383
krisen	-9384
rochen	-9385
▁Bushs	-9386
▁Geist	-9387
▁chief	-9388
▁लेकिन	-9389
▁defeat	-9390
▁Beijing	-9391
▁Foreign	-9392
▁Without	-9393
▁resolve	-9394
erstörung	-9395
▁Funktion	-9396
▁passiert	-9397
handlungen	-9398
▁solidarity	-9399
▁unabhängig	-9400
▁wiederholt	-9401
▁Liberalisierung	-9402
EO	-9403
gu	-9404
kar	-9405
bezie	-9406
▁Sein	-9407
▁folg	-9408
▁none	-9409
▁rely	-9410
▁joint	-9411
▁Angela	-9412
▁explan	-9413
▁planet	-9414
▁Konzept	-9415
▁Treffen	-9416
▁Niedergang	-9417
▁Flüchtlinge	-9418
▁implemented	-9419
ores	-9420
vard	-9421
▁ASE	-9422
▁kept	-9423
estern	-9424
▁Gesam	-9425
▁ander	-9426
kurrenz	-9427
mission	-9428
▁Altern	-9429
▁Körper	-9430
▁driven	-9431
▁erneuer	-9432
▁mention	-9433
ervativen	-9434
ibilities	-9435
senkungen	-9436
▁perspect	-9437
▁spiegelt	-9438
▁indischen	-9439
▁resolution	-9440
hy	-9441
▁BR	-9442
icate	-9443
tehen	-9444
▁Mark	-9445
▁Mult	-9446
▁tact	-9447
rieren	-9448
▁ASEAN	-9449
▁alloc	-9450
▁carry	-9451
▁derer	-9452
▁einher	-9453
▁gesetz	-9454
▁moving	-9455
leichter	-9456
▁Akteure	-9457
▁beträgt	-9458
zahlungen	-9459
▁Haushalt	-9460
▁minority	-9461
▁weiteres	-9462
▁Christian	-9463
▁Konferenz	-9464
▁estimates	-9465
▁opponents	-9466
▁represents	-9467
▁Information	-9468
▁gegenwärtige	-9469
▁universities	-9470
▁establishment	-9471
AD	-9472
oha	-9473
▁4%	-9474
▁QE	-9475
hten	-9476
lymp	-9477
verl	-9478
▁Abs	-9479
▁Arm	-9480
zeuge	-9481
▁Fahr	-9482
▁Goog	-9483
▁Like	-9484
ennung	-9485
wissen	-9486
▁Burma	-9487
ließend	-9488
vertrag	-9489
▁beherr	-9490
▁conver	-9491
▁jemand	-9492
▁proved	-9493
▁undert	-9494
▁Mädchen	-9495
▁typically	-9496
▁Instrument	-9497
▁mechanisms	-9498
▁offizielle	-9499
▁percentage	-9500
▁gegenwärtig	-9501
▁implications	-9502
rug	-9503
bald	-9504
▁Mis	-9505
▁Lehr	-9506
gebung	-9507
▁Sinne	-9508
fassung	-9509
▁Presse	-9510
▁beseit	-9511
▁desper	-9512
▁langen	-9513
▁method	-9514
aktionen	-9515
▁confron	-9516
ettbewerbs	-9517
▁verbessert	-9518
▁Medikamente	-9519
▁immigration	-9520
▁transformation	-9521
til	-9522
uit	-9523
▁सह	-9524
äumt	-9525
▁Oct	-9526
▁früh	-9527
▁Fried	-9528
▁Juden	-9529
▁decis	-9530
▁academ	-9531
gebracht	-9532
▁abgesch	-9533
▁causing	-9534
▁emotion	-9535
▁sichern	-9536
uropäischen	-9537
▁Menschheit	-9538
भी	-9539
सर	-9540
RIC	-9541
ius	-9542
▁बह	-9543
more	-9544
▁Grow	-9545
▁gran	-9546
▁Beruf	-9547
▁Sunni	-9548
▁gelten	-9549
▁Erinner	-9550
▁surprise	-9551
▁territory	-9552
▁legitimate	-9553
▁überwiegend	-9554
möglichkeiten	-9555
amerikanischen	-9556
▁Arbeitsplätzen	-9557
▁ed	-9558
▁इन	-9559
Chin	-9560
ahun	-9561
üben	-9562
▁Pak	-9563
iling	-9564
ließt	-9565
▁Bran	-9566
▁Unru	-9567
▁Zwar	-9568
▁heim	-9569
ktober	-9570
▁fehlt	-9571
▁homes	-9572
▁persu	-9573
kurbeln	-9574
▁offers	-9575
▁viewed	-9576
▁mistake	-9577
▁sterben	-9578
▁transat	-9579
▁Palestine	-9580
▁Solidarität	-9581
▁unmittelbar	-9582
▁Arbeitsplatz	-9583
CA	-9584
rück	-9585
öger	-9586
▁Kämp	-9587
▁länd	-9588
▁nahm	-9589
▁करना	-9590
lieben	-9591
▁Reduz	-9592
▁medic	-9593
▁neben	-9594
▁Fiskal	-9595
▁zwangs	-9596
▁Oktober	-9597
▁disrupt	-9598
▁lokalen	-9599
▁zwingen	-9600
▁Vorsitzen	-9601
▁declining	-9602
▁unbedingt	-9603
▁maintaining	-9604
EA	-9605
▁19.	-9606
nicht	-9607
theit	-9608
▁Doha	-9609
▁says	-9610
▁2009,	-9611
▁Laufe	-9612
▁begun	-9613
sequent	-9614
vements	-9615
▁Gewinn	-9616
▁aspect	-9617
▁deeper	-9618
▁bestand	-9619
▁gleiche	-9620
einanders	-9621
▁barriers	-9622
▁remember	-9623
▁criticism	-9624
▁angewiesen	-9625
▁restructuring	-9626
cu	-9627
ees	-9628
▁Tw	-9629
▁got	-9630
igned	-9631
▁legt	-9632
lösung	-9633
▁green	-9634
▁günst	-9635
▁links	-9636
hetorik	-9637
▁engage	-9638
▁nachzu	-9639
▁spirit	-9640
aßnahmen	-9641
▁October	-9642
▁coordin	-9643
▁geringe	-9644
▁nuklear	-9645
▁Anspruch	-9646
▁pressures	-9647
▁verkaufen	-9648
wirtschafts	-9649
▁innovative	-9650
▁strategies	-9651
▁immediately	-9652
▁Kreditvergabe	-9653
9%	-9654
▁Ihr	-9655
▁Log	-9656
▁ras	-9657
▁reb	-9658
weich	-9659
wärts	-9660
▁Suche	-9661
▁chann	-9662
▁earth	-9663
▁erlebt	-9664
▁gesetzt	-9665
▁moderne	-9666
▁Qualität	-9667
▁Wladimir	-9668
▁Democrats	-9669
▁ausgegeben	-9670
▁Minderheiten	-9671
▁developments	-9672
esh	-9673
ेत्र	-9674
▁DNA	-9675
ouver	-9676
reibt	-9677
▁2010,	-9678
▁exact	-9679
▁aggreg	-9680
▁explos	-9681
igranten	-9682
▁Individ	-9683
▁heavily	-9684
▁irgendw	-9685
ipulation	-9686
▁dialogue	-9687
überschuss	-9688
▁reflected	-9689
▁Indonesien	-9690
▁structures	-9691
▁zukünftigen	-9692
uj	-9693
ähe	-9694
bles	-9695
cons	-9696
ries	-9697
tech	-9698
▁bul	-9699
klang	-9700
▁beob	-9701
▁trip	-9702
krimin	-9703
▁fixed	-9704
brechen	-9705
standard	-9706
▁Schulen	-9707
▁opening	-9708
▁Committee	-9709
▁improving	-9710
▁entstanden	-9711
▁afrikanischen	-9712
cow	-9713
abin	-9714
▁21.	-9715
▁wro	-9716
angan	-9717
essim	-9718
legte	-9719
örung	-9720
▁Gene	-9721
▁atom	-9722
▁lock	-9723
entwick	-9724
▁Kriege	-9725
▁Willen	-9726
▁gewöhn	-9727
▁treten	-9728
▁Begriff	-9729
▁mission	-9730
▁Reserven	-9731
▁genannte	-9732
▁größerer	-9733
▁offenbar	-9734
▁richtigen	-9735
▁settlement	-9736
▁experienced	-9737
▁menschliche	-9738
▁Überwachung	-9739
IS	-9740
ipt	-9741
▁24	-9742
alam	-9743
ennt	-9744
hold	-9745
uert	-9746
▁Wal	-9747
▁Ära	-9748
▁Weit	-9749
▁egal	-9750
coming	-9751
istics	-9752
▁Offen	-9753
▁heavy	-9754
▁Anlage	-9755
▁Anreiz	-9756
▁Norden	-9757
▁Aussicht	-9758
▁Kritiker	-9759
▁erinnern	-9760
▁massiven	-9761
▁behauptet	-9762
▁einsetzen	-9763
▁angenommen	-9764
▁ausschließlich	-9765
alog	-9766
kürz	-9767
mann	-9768
umer	-9769
zins	-9770
▁dah	-9771
▁säm	-9772
essed	-9773
orfen	-9774
▁sagt	-9775
▁schr	-9776
ativer	-9777
▁hinzu	-9778
▁tidak	-9779
▁search	-9780
▁gewählt	-9781
▁related	-9782
▁solange	-9783
▁turning	-9784
▁wenigen	-9785
▁billions	-9786
▁moralische	-9787
▁dictatorship	-9788
तर	-9789
adr	-9790
iki	-9791
une	-9792
ingu	-9793
nahm	-9794
greif	-9795
▁Prot	-9796
▁Shar	-9797
▁fire	-9798
▁prem	-9799
commun	-9800
stände	-9801
▁Neben	-9802
▁field	-9803
▁plant	-9804
ikanern	-9805
▁Schock	-9806
▁Serbia	-9807
▁lokale	-9808
▁wonder	-9809
utzutage	-9810
▁disappe	-9811
▁Methoden	-9812
▁Perspekt	-9813
▁Autorität	-9814
verschuldung	-9815
▁geschlossen	-9816
▁dramatically	-9817
▁multinational	-9818
▁amerikanischer	-9819
run	-9820
wäl	-9821
▁IS	-9822
affe	-9823
ques	-9824
▁syn	-9825
▁Jean	-9826
▁Werk	-9827
unsten	-9828
▁amounts	-9829
▁correct	-9830
▁discour	-9831
▁illegal	-9832
▁möchten	-9833
▁Gebieten	-9834
▁Kommunik	-9835
▁Überleben	-9836
▁referendum	-9837
▁ausgedrückt	-9838
▁geopolitical	-9839
zed	-9840
▁sac	-9841
altet	-9842
▁Araf	-9843
▁Zwei	-9844
▁Kluft	-9845
▁apply	-9846
▁reale	-9847
▁trägt	-9848
▁stimmt	-9849
▁ärmsten	-9850
▁criminal	-9851
▁downturn	-9852
▁Greenspan	-9853
▁extremely	-9854
▁migration	-9855
▁objective	-9856
▁Copenhagen	-9857
▁Emissionen	-9858
▁Initiativen	-9859
▁konzentriert	-9860
bre	-9861
ickt	-9862
ukan	-9863
etten	-9864
▁geist	-9865
▁signs	-9866
▁Milosev	-9867
▁Viertel	-9868
▁bedroht	-9869
▁Reduzierung	-9870
▁israelische	-9871
▁kurzfristig	-9872
▁Innovationen	-9873
▁ट	-9874
कों	-9875
▁वे	-9876
emer	-9877
geiz	-9878
▁80%	-9879
▁daß	-9880
▁Mand	-9881
▁Indem	-9882
▁woman	-9883
▁Google	-9884
▁except	-9885
▁negara	-9886
▁resist	-9887
▁stands	-9888
▁dynamic	-9889
▁supplies	-9890
▁Stability	-9891
▁vollkommen	-9892
▁Ersparnisse	-9893
▁Mitgliedern	-9894
▁muslimischen	-9895
▁Griechenlands	-9896
▁landwirtschaft	-9897
aku	-9898
das	-9899
gro	-9900
irus	-9901
iser	-9902
stac	-9903
▁Dan	-9904
▁परि	-9905
eking	-9906
kommt	-9907
teien	-9908
▁Voll	-9909
▁appl	-9910
▁magn	-9911
▁newsp	-9912
▁zwanz	-9913
▁brutal	-9914
▁legacy	-9915
▁vorbei	-9916
▁Deshalb	-9917
▁Nutzung	-9918
▁corrupt	-9919
▁क्षेत्र	-9920
▁Transparenz	-9921
▁requirements	-9922
6,	-9923
knüp	-9924
play	-9925
▁Act	-9926
▁Kol	-9927
ected	-9928
▁Kohl	-9929
▁Myan	-9930
orgnis	-9931
erungen	-9932
related	-9933
▁Gebiet	-9934
▁Market	-9935
▁cooper	-9936
▁devast	-9937
▁marked	-9938
▁shocks	-9939
▁driving	-9940
▁genetic	-9941
▁looking	-9942
▁bringing	-9943
▁ideology	-9944
▁physical	-9945
▁observers	-9946
▁Demokraten	-9947
▁derartiger	-9948
▁Nevertheless	-9949
▁restrictions	-9950
▁zurückzuführen	-9951
eb	-9952
bul	-9953
ser	-9954
ipped	-9955
üssen	-9956
▁Fert	-9957
▁Trag	-9958
stream	-9959
▁Forum	-9960
▁Krebs	-9961
▁Laden	-9962
▁einzu	-9963
▁maxim	-9964
▁stake	-9965
▁weisen	-9966
▁widers	-9967
▁Glauben	-9968
▁erleben	-9969
▁opposed	-9970
ianischen	-9971
ुद	-9972
rad	-9973
agon	-9974
▁McC	-9975
▁amp	-9976
usted	-9977
▁feed	-9978
▁wide	-9979
▁yiel	-9980
inking	-9981
▁highl	-9982
▁speak	-9983
▁Praxis	-9984
▁obstac	-9985
▁review	-9986
▁offenen	-9987
▁purpose	-9988
▁Bernanke	-9989
▁Problems	-9990
▁accompan	-9991
Emissionen	-9992
▁determine	-9993
▁Mitarbeiter	-9994
▁recognition	-9995
▁economically	-9996
▁Beschränkungen	-9997
DR	-9998
iox	-9999
imme	-10000
itzt	-10001
reme	-10002
▁mix	-10003
gment	-10004
▁Sied	-10005
▁Verd	-10006
legten	-10007
▁Haiti	-10008
▁Where	-10009
▁absch	-10010
▁alarm	-10011
▁figure	-10012
▁issued	-10013
▁accompl	-10014
▁advance	-10015
▁dürften	-10016
▁keeping	-10017
▁monopol	-10018
▁besseren	-10019
▁mortgage	-10020
▁aufstreben	-10021
▁supporting	-10022
▁entwickelte	-10023
▁generations	-10024
▁durchgeführt	-10025
▁Interventionen	-10026
atan	-10027
ered	-10028
▁sem	-10029
▁उत्	-10030
hebung	-10031
inland	-10032
▁Fälle	-10033
▁Süden	-10034
▁leads	-10035
athemat	-10036
▁Eltern	-10037
ätzungen	-10038
▁Methode	-10039
▁conclud	-10040
▁mehreren	-10041
▁zurückzu	-10042
▁Franzosen	-10043
▁equivalent	-10044
▁staatlicher	-10045
▁wettbewerbs	-10046
▁mittlerweile	-10047
▁Partnerschaft	-10048
ruf	-10049
üss	-10050
iary	-10051
▁Diff	-10052
▁fulf	-10053
▁room	-10054
ective	-10055
ichert	-10056
▁blieb	-10057
▁kompl	-10058
▁shape	-10059
lichung	-10060
quellen	-10061
▁Häuser	-10062
▁Jewish	-10063
▁Moscow	-10064
▁dritte	-10065
sammlung	-10066
▁mandate	-10067
▁playing	-10068
▁gefunden	-10069
▁starting	-10070
▁glaubwürd	-10071
▁herrschen	-10072
▁verdienen	-10073
▁jährlichen	-10074
▁remarkable	-10075
▁Hintergrund	-10076
▁willingness	-10077
▁Wesentlichen	-10078
len	-10079
▁Sk	-10080
पूर्	-10081
▁PRI	-10082
unken	-10083
▁2030	-10084
▁Shia	-10085
▁Wolf	-10086
▁अपने	-10087
▁Stamm	-10088
▁begeg	-10089
▁denke	-10090
▁multi	-10091
▁tough	-10092
▁Garant	-10093
▁rulers	-10094
▁stance	-10095
▁wächst	-10096
pressive	-10097
▁defined	-10098
▁partner	-10099
▁trouble	-10100
▁gewonnen	-10101
▁soldiers	-10102
government	-10103
▁ideological	-10104
▁Informations	-10105
25	-10106
7,	-10107
मा	-10108
asc	-10109
edy	-10110
▁Zh	-10111
idel	-10112
▁bah	-10113
▁täg	-10114
▁अंत	-10115
bauen	-10116
isses	-10117
▁BRIC	-10118
▁Roma	-10119
▁grav	-10120
▁hosp	-10121
acific	-10122
▁delay	-10123
▁klare	-10124
mitglie	-10125
▁Beweis	-10126
▁zählen	-10127
▁erzielt	-10128
▁begrenzt	-10129
▁democrat	-10130
▁Deflation	-10131
▁aggregate	-10132
▁supporters	-10133
▁kurzfristigen	-10134
▁unsustainable	-10135
ज़	-10136
योग	-10137
aran	-10138
itzer	-10139
unami	-10140
▁fate	-10141
ighted	-10142
stands	-10143
▁2001,	-10144
▁Quart	-10145
▁Welth	-10146
▁voran	-10147
spolitik	-10148
▁regular	-10149
▁Peripher	-10150
▁nowadays	-10151
▁possibly	-10152
▁rechtfert	-10153
▁occupation	-10154
▁Wechselkurse	-10155
▁Mitgliedschaft	-10156
nor	-10157
omed	-10158
▁70%	-10159
▁Bag	-10160
▁Ähn	-10161
ester	-10162
first	-10163
ossen	-10164
▁entf	-10165
▁rech	-10166
▁solve	-10167
stoffen	-10168
▁condem	-10169
▁father	-10170
▁insist	-10171
▁reluct	-10172
▁oftmals	-10173
▁Computer	-10174
▁Renminbi	-10175
▁mögliche	-10176
▁resource	-10177
▁proposals	-10178
▁anhaltende	-10179
▁Allgemeinen	-10180
▁transparency	-10181
▁strengthening	-10182
ुर	-10183
book	-10184
ense	-10185
fält	-10186
▁asp	-10187
inian	-10188
▁Engl	-10189
▁Jews	-10190
▁Prop	-10191
▁Vorg	-10192
annten	-10193
▁Popul	-10194
▁unity	-10195
▁bewaff	-10196
▁trends	-10197
▁Energies	-10198
▁Effizienz	-10199
▁behandelt	-10200
▁Königreich	-10201
▁bestimmten	-10202
▁potenziell	-10203
▁übertragen	-10204
▁Kooperation	-10205
▁außergewöhn	-10206
▁zunehmenden	-10207
क्र	-10208
asts	-10209
llor	-10210
onic	-10211
▁Ban	-10212
▁End	-10213
▁cra	-10214
▁sau	-10215
odies	-10216
▁Lang	-10217
▁Oper	-10218
▁pada	-10219
▁vill	-10220
itious	-10221
▁Fremd	-10222
▁Pläne	-10223
▁hours	-10224
▁tahun	-10225
▁zerst	-10226
▁gained	-10227
▁reject	-10228
▁Zeichen	-10229
▁italien	-10230
▁paradox	-10231
▁betrifft	-10232
herrschaft	-10233
▁Argumente	-10234
▁jährliche	-10235
▁depression	-10236
▁Angelegenheiten	-10237
▁Präsidentschaft	-10238
वि	-10239
mos	-10240
▁कु	-10241
etro	-10242
lern	-10243
riot	-10244
rott	-10245
ties	-10246
annte	-10247
kular	-10248
▁Kein	-10249
▁anim	-10250
kommun	-10251
kriegs	-10252
▁Stagn	-10253
sektors	-10254
▁Sweden	-10255
▁costly	-10256
▁dauern	-10257
▁orient	-10258
▁reward	-10259
▁temper	-10260
▁unique	-10261
▁players	-10262
▁someone	-10263
▁Anwendung	-10264
▁Forderung	-10265
▁Ideologie	-10266
▁arabische	-10267
▁centuries	-10268
▁described	-10269
▁verurteilt	-10270
▁Kreditgeber	-10271
▁perspective	-10272
DI	-10273
ुत	-10274
नों	-10275
▁Cl	-10276
▁सर	-10277
▁Far	-10278
babwe	-10279
embly	-10280
folgt	-10281
oking	-10282
ledged	-10283
fristig	-10284
▁Hunder	-10285
▁Jugend	-10286
▁bitter	-10287
▁unlike	-10288
▁Dadurch	-10289
▁Standards	-10290
▁Bedrohungen	-10291
▁necessarily	-10292
▁Journalisten	-10293
▁zwangsläufig	-10294
Die	-10295
ils	-10296
udd	-10297
unf	-10298
owned	-10299
▁cele	-10300
thaber	-10301
▁Straf	-10302
▁markt	-10303
.&#160;	-10304
ystemen	-10305
▁summer	-10306
▁wahren	-10307
▁geprägt	-10308
▁happens	-10309
▁humanit	-10310
▁malaria	-10311
▁beteiligt	-10312
▁gestalten	-10313
▁Unterdrück	-10314
▁agriculture	-10315
▁nationalist	-10316
▁Bestimmungen	-10317
▁Republikaner	-10318
ua	-10319
äte	-10320
wand	-10321
▁Del	-10322
▁tut	-10323
ained	-10324
erved	-10325
stein	-10326
▁schn	-10327
▁dream	-10328
▁hopes	-10329
▁künft	-10330
▁paper	-10331
▁revol	-10332
General	-10333
altungs	-10334
▁Health	-10335
▁Quelle	-10336
▁fragen	-10337
▁attract	-10338
▁Rhetorik	-10339
▁humanity	-10340
▁networks	-10341
▁pakistan	-10342
▁surpluses	-10343
▁vergessen	-10344
▁ernsthafte	-10345
▁unternehmen	-10346
Ab	-10347
्प	-10348
hrt	-10349
▁Bi	-10350
täus	-10351
with	-10352
▁abh	-10353
▁kur	-10354
▁Herz	-10355
iegeln	-10356
▁Sollte	-10357
▁handel	-10358
ibilität	-10359
▁unserem	-10360
stehenden	-10361
▁Kollegen	-10362
▁computer	-10363
▁flexible	-10364
▁stärkere	-10365
▁practical	-10366
▁umfassenden	-10367
ij	-10368
anc	-10369
▁जै	-10370
udes	-10371
▁loy	-10372
ascht	-10373
günst	-10374
▁Darf	-10375
▁draw	-10376
▁umge	-10377
ultane	-10378
▁enfor	-10379
▁fewer	-10380
▁fuels	-10381
▁renew	-10382
▁sales	-10383
▁Gipfel	-10384
▁Muster	-10385
aluation	-10386
▁Artikel	-10387
▁Climate	-10388
▁bubbles	-10389
▁fragile	-10390
▁Gründung	-10391
▁Projekte	-10392
▁explicit	-10393
▁historic	-10394
▁included	-10395
▁renminbi	-10396
▁suffered	-10397
revolution	-10398
▁unvermeid	-10399
▁arrangements	-10400
▁traditionelle	-10401
ili	-10402
lav	-10403
olz	-10404
▁Su	-10405
idge	-10406
▁fost	-10407
bürger	-10408
▁moved	-10409
▁telev	-10410
gestell	-10411
handelt	-10412
umenten	-10413
▁allmäh	-10414
▁allows	-10415
▁elites	-10416
▁retire	-10417
▁satisf	-10418
▁saying	-10419
arbeitet	-10420
▁Ausgang	-10421
▁exposed	-10422
▁package	-10423
▁putting	-10424
▁survive	-10425
▁constant	-10426
▁Gefängnis	-10427
▁processes	-10428
▁attractive	-10429
▁discussion	-10430
▁aufgenommen	-10431
▁transparent	-10432
▁unternommen	-10433
HO	-10434
obby	-10435
▁Any	-10436
▁lay	-10437
stadt	-10438
weite	-10439
▁Aspe	-10440
▁Jong	-10441
Länder	-10442
niveau	-10443
weigen	-10444
üstung	-10445
▁Super	-10446
▁Reicht	-10447
▁hinweg	-10448
▁losing	-10449
▁paying	-10450
▁pushed	-10451
▁unzure	-10452
▁strongly	-10453
▁Aufsichts	-10454
▁Nachricht	-10455
▁expanding	-10456
▁published	-10457
▁verlangen	-10458
▁verwenden	-10459
herstellung	-10460
▁contributed	-10461
.5	-10462
27	-10463
Pl	-10464
aub	-10465
kom	-10466
log	-10467
uff	-10468
ume	-10469
utch	-10470
▁Dim	-10471
ierer	-10472
kolog	-10473
älter	-10474
▁Once	-10475
▁Rein	-10476
▁foot	-10477
rachen	-10478
▁Tunis	-10479
▁Until	-10480
▁votes	-10481
▁Histor	-10482
▁keines	-10483
▁mutual	-10484
▁online	-10485
▁showed	-10486
▁Harvard	-10487
▁drängen	-10488
▁schafft	-10489
intensive	-10490
▁apparent	-10491
Sicherheit	-10492
▁Osteuropa	-10493
▁incentive	-10494
▁threatened	-10495
▁weitgehend	-10496
▁encouraging	-10497
▁corporations	-10498
kos	-10499
pak	-10500
▁ज़	-10501
annt	-10502
prom	-10503
wogen	-10504
anzler	-10505
▁Olymp	-10506
▁Qaeda	-10507
▁Sturz	-10508
▁Tagen	-10509
▁cycle	-10510
▁scope	-10511
▁simpl	-10512
findung	-10513
▁Kunden	-10514
▁Provin	-10515
▁Sonder	-10516
▁Unsere	-10517
▁assert	-10518
▁obtain	-10519
▁series	-10520
▁gewisse	-10521
▁recommen	-10522
▁reduziert	-10523
▁Freihandels	-10524
ात	-10525
र्ष	-10526
▁sä	-10527
eite	-10528
mlich	-10529
▁Tony	-10530
▁zone	-10531
vented	-10532
▁Alter	-10533
▁risky	-10534
aschend	-10535
utreten	-10536
▁Hitler	-10537
▁Hunger	-10538
▁rechts	-10539
▁übrigen	-10540
standards	-10541
▁Einklang	-10542
▁einander	-10543
▁sinnvoll	-10544
▁communism	-10545
▁bezeichnen	-10546
▁priorities	-10547
äbe	-10548
zent	-10549
▁Amb	-10550
▁ohn	-10551
eller	-10552
inded	-10553
prime	-10554
weist	-10555
▁Sitz	-10556
Finanz	-10557
legend	-10558
werfen	-10559
▁black	-10560
▁holds	-10561
▁stead	-10562
▁wrote	-10563
▁Romney	-10564
▁emerge	-10565
▁expert	-10566
▁gingen	-10567
▁urgent	-10568
▁Analyse	-10569
▁Anlagen	-10570
▁Myanmar	-10571
▁perfect	-10572
▁witness	-10573
leistungs	-10574
▁Planeten	-10575
▁Standard	-10576
▁attempts	-10577
▁survival	-10578
▁Australia	-10579
▁addressed	-10580
▁enterprises	-10581
.,	-10582
▁Li	-10583
▁सब	-10584
cont	-10585
künd	-10586
anner	-10587
▁Aust	-10588
▁hear	-10589
▁outs	-10590
asters	-10591
drängt	-10592
freund	-10593
icious	-10594
▁brain	-10595
▁davor	-10596
▁logic	-10597
▁unten	-10598
ispiele	-10599
▁Eliten	-10600
▁bislang	-10601
▁direkte	-10602
▁unseres	-10603
▁negativen	-10604
▁Zustimmung	-10605
▁completely	-10606
▁Erweiterung	-10607
▁Investition	-10608
▁historische	-10609
ta	-10610
dad	-10611
mor	-10612
mend	-10613
▁Cze	-10614
▁mil	-10615
derte	-10616
icles	-10617
ielte	-10618
▁Konz	-10619
▁bold	-10620
▁grew	-10621
verein	-10622
▁Charak	-10623
▁Growth	-10624
▁drohen	-10625
▁Nicolas	-10626
▁closely	-10627
▁jeweils	-10628
▁Schwäche	-10629
▁opposite	-10630
▁publicly	-10631
▁Verwaltung	-10632
▁experiment	-10633
▁Eigenkapital	-10634
गे	-10635
▁Sa	-10636
akte	-10637
erry	-10638
▁Tem	-10639
▁ren	-10640
style	-10641
▁Able	-10642
▁Golf	-10643
▁Temp	-10644
zeiten	-10645
▁damal	-10646
▁discr	-10647
▁grand	-10648
▁Schule	-10649
▁echten	-10650
ianische	-10651
▁network	-10652
▁affected	-10653
▁ausgelöst	-10654
▁Medikament	-10655
▁Stagnation	-10656
▁Steuerzahler	-10657
ैं	-10658
▁35	-10659
▁या	-10660
Kopf	-10661
iben	-10662
▁Inv	-10663
▁साम	-10664
andal	-10665
▁Deng	-10666
▁plat	-10667
▁2007,	-10668
▁slight	-10669
▁Niederl	-10670
▁embrace	-10671
▁pushing	-10672
▁Ausbruch	-10673
▁Gesetzes	-10674
▁Ursachen	-10675
windigkeit	-10676
▁contracts	-10677
▁ernsthaft	-10678
▁Machthaber	-10679
▁Prioritäten	-10680
▁Schwerpunkt	-10681
▁griechische	-10682
▁Vereinbarung	-10683
▁appreciation	-10684
eff	-10685
iop	-10686
aval	-10687
▁ban	-10688
▁mor	-10689
unruh	-10690
▁2050	-10691
▁Hill	-10692
▁Impf	-10693
▁exac	-10694
▁excl	-10695
▁race	-10696
▁होने	-10697
erusal	-10698
grenze	-10699
▁&#160	-10700
jährige	-10701
▁Allian	-10702
▁Colomb	-10703
▁Corpor	-10704
▁unions	-10705
▁Bankens	-10706
▁Zentrum	-10707
▁genuine	-10708
▁producers	-10709
▁bedeutende	-10710
▁erhebliche	-10711
▁unabhängige	-10712
▁humanitarian	-10713
üß	-10714
ीन	-10715
ूल	-10716
ehin	-10717
ößen	-10718
▁BER	-10719
▁Bom	-10720
▁Bör	-10721
▁jüd	-10722
feind	-10723
▁Gang	-10724
▁gegr	-10725
ailing	-10726
sätzen	-10727
▁added	-10728
verschm	-10729
▁Darfur	-10730
▁Stimme	-10731
▁inspir	-10732
▁served	-10733
▁settle	-10734
erusalem	-10735
▁Respekt	-10736
▁Ursache	-10737
▁contemp	-10738
▁Bereiche	-10739
▁populist	-10740
emissionen	-10741
▁religiöse	-10742
▁simultane	-10743
▁establishing	-10744
ley	-10745
burg	-10746
▁25%	-10747
▁Ali	-10748
▁Jac	-10749
▁Met	-10750
▁sea	-10751
▁tox	-10752
agern	-10753
ioxid	-10754
steck	-10755
ueled	-10756
▁Null	-10757
▁nord	-10758
kretär	-10759
▁Optim	-10760
▁board	-10761
▁daily	-10762
▁grown	-10763
▁inade	-10764
▁schäd	-10765
▁Bilanz	-10766
▁Canada	-10767
▁Lehman	-10768
▁Lehren	-10769
▁Spitze	-10770
▁linked	-10771
▁Bündnis	-10772
▁Schweiz	-10773
▁Zustand	-10774
▁verständ	-10775
Mitglieder	-10776
▁Liquidität	-10777
▁Zerstörung	-10778
▁ignorieren	-10779
▁reasonable	-10780
▁surprising	-10781
▁Verpflichtung	-10782
Par	-10783
cel	-10784
▁$4	-10785
▁तो	-10786
aded	-10787
▁City	-10788
▁Dann	-10789
crisis	-10790
itting	-10791
▁1970’	-10792
▁Feind	-10793
▁Liste	-10794
▁Logik	-10795
▁Würde	-10796
▁disag	-10797
▁लोगों	-10798
▁assume	-10799
▁closed	-10800
▁deepen	-10801
▁plants	-10802
▁secret	-10803
▁specul	-10804
▁Italian	-10805
▁Mitteln	-10806
▁Richter	-10807
▁proceed	-10808
▁primarily	-10809
▁Instrumente	-10810
▁einzusetzen	-10811
▁enlargement	-10812
ारा	-10813
▁23	-10814
▁na	-10815
etic	-10816
▁192	-10817
deren	-10818
trade	-10819
▁Isol	-10820
▁word	-10821
ipline	-10822
wasser	-10823
ympath	-10824
▁Times	-10825
▁सरकार	-10826
bleiben	-10827
ährungs	-10828
▁Church	-10829
▁calcul	-10830
▁underg	-10831
▁critics	-10832
▁koordin	-10833
▁reinfor	-10834
forschung	-10835
▁Diktatur	-10836
▁Egyptian	-10837
▁Vielmehr	-10838
▁geograph	-10839
▁sozialer	-10840
▁Milosevic	-10841
▁Südafrika	-10842
▁zentralen	-10843
▁Finanzsektor	-10844
▁überraschend	-10845
Ass	-10846
ाना	-10847
ancy	-10848
ched	-10849
chem	-10850
coun	-10851
debt	-10852
stät	-10853
▁thr	-10854
arely	-10855
▁Belg	-10856
▁nütz	-10857
▁sole	-10858
inejad	-10859
legung	-10860
▁Dutch	-10861
▁engag	-10862
▁stopp	-10863
liberal	-10864
preisen	-10865
▁Justiz	-10866
▁berühm	-10867
▁surely	-10868
European	-10869
Mitglied	-10870
▁capable	-10871
▁setting	-10872
▁hospital	-10873
management	-10874
▁Palästina	-10875
▁iranische	-10876
▁schwachen	-10877
▁Chancellor	-10878
▁Minderheit	-10879
▁extraordin	-10880
▁finanziert	-10881
▁zweifellos	-10882
versicherung	-10883
▁erfolgreiche	-10884
We	-10885
ips	-10886
zig	-10887
▁22	-10888
aret	-10889
edge	-10890
phäre	-10891
▁died	-10892
▁Thaks	-10893
▁stren	-10894
▁actors	-10895
▁bottom	-10896
▁langem	-10897
▁travel	-10898
▁wählen	-10899
ältigung	-10900
▁Merkmal	-10901
▁Rettung	-10902
▁carried	-10903
▁charges	-10904
▁killing	-10905
▁ohnehin	-10906
abilitäts	-10907
▁invasion	-10908
▁northern	-10909
▁Eigenheim	-10910
▁stärksten	-10911
▁Behauptung	-10912
▁Millennium	-10913
▁unterscheiden	-10914
▁entscheidenden	-10915
uts	-10916
umän	-10917
zust	-10918
▁kos	-10919
▁Ärz	-10920
bring	-10921
rying	-10922
▁Cont	-10923
▁Fach	-10924
▁Jobs	-10925
▁Marx	-10926
flüsse	-10927
▁Psych	-10928
▁neutr	-10929
▁accord	-10930
▁setzte	-10931
▁sexual	-10932
▁Afrikas	-10933
▁Beweise	-10934
▁Februar	-10935
▁Million	-10936
▁Verkauf	-10937
▁deliber	-10938
▁reports	-10939
inflation	-10940
vertreter	-10941
▁reaction	-10942
▁Änderung	-10943
olidierung	-10944
▁ähnlichen	-10945
▁Reaktionen	-10946
▁repeatedly	-10947
▁schlimmsten	-10948
▁Verhandlungs	-10949
De	-10950
lef	-10951
reff	-10952
▁Bor	-10953
▁bol	-10954
▁जाए	-10955
ränkt	-10956
▁poin	-10957
▁सकता	-10958
ueller	-10959
▁Anlei	-10960
berecht	-10961
entlich	-10962
▁Spekul	-10963
▁mother	-10964
▁perpet	-10965
▁ökolog	-10966
ichteten	-10967
▁Rückzug	-10968
▁compete	-10969
▁exacerb	-10970
▁kleiner	-10971
▁tatsäch	-10972
struction	-10973
▁Kampagne	-10974
▁Zugleich	-10975
▁religiös	-10976
▁remaining	-10977
▁Management	-10978
▁grundlegend	-10979
▁Finanzierungs	-10980
Ar	-10981
ां	-10982
eig	-10983
klar	-10984
miss	-10985
▁ple	-10986
▁Sout	-10987
▁Vern	-10988
▁shap	-10989
▁Licht	-10990
▁dalam	-10991
▁enhan	-10992
▁harte	-10993
problem	-10994
▁Arafat	-10995
▁Labour	-10996
▁epidem	-10997
▁signed	-10998
▁warten	-10999
▁ausgest	-11000
▁bezahlt	-11001
▁Brothers	-11002
▁einfache	-11003
▁ersetzen	-11004
▁indische	-11005
▁Treibhaus	-11006
▁communist	-11007
▁taxpayers	-11008
▁Jahrzehnts	-11009
▁Vertrauens	-11010
▁türkischen	-11011
▁Diskussionen	-11012
bag	-11013
eto	-11014
was	-11015
zul	-11016
AIDS	-11017
elih	-11018
öste	-11019
▁Ruf	-11020
▁Yen	-11021
▁äuß	-11022
Krieg	-11023
icing	-11024
▁Ganz	-11025
▁Gest	-11026
▁eyes	-11027
▁felt	-11028
machen	-11029
▁Jeder	-11030
▁Sparm	-11031
▁facto	-11032
▁girls	-11033
▁grenz	-11034
▁solar	-11035
Arabien	-11036
rechten	-11037
▁deprec	-11038
▁ignore	-11039
▁jüngst	-11040
▁latter	-11041
aushalts	-11042
building	-11043
▁Reichen	-11044
▁umfasst	-11045
▁Sektoren	-11046
▁planning	-11047
▁arguments	-11048
▁Universität	-11049
▁educational	-11050
ki	-11051
andt	-11052
loss	-11053
▁Eur	-11054
eping	-11055
erien	-11056
tries	-11057
▁Heil	-11058
▁Nähe	-11059
▁halb	-11060
anging	-11061
partei	-11062
▁Traum	-11063
▁Sommer	-11064
▁extens	-11065
▁nennen	-11066
▁sprach	-11067
▁Fußball	-11068
▁Rechten	-11069
▁treated	-11070
zufrieden	-11071
▁gelangen	-11072
▁Abwertung	-11073
▁Beispiele	-11074
▁employees	-11075
▁Verhaltens	-11076
▁integrated	-11077
▁supposedly	-11078
▁verstanden	-11079
▁constraints	-11080
▁importantly	-11081
▁andererseits	-11082
gab	-11083
hai	-11084
mir	-11085
ois	-11086
arth	-11087
elts	-11088
iced	-11089
▁Slo	-11090
▁गया	-11091
▁जिन	-11092
ariff	-11093
▁Much	-11094
anyahu	-11095
inding	-11096
▁Genau	-11097
▁Weste	-11098
isingly	-11099
▁Formen	-11100
▁consequ	-11101
▁erstaun	-11102
▁Aufgaben	-11103
▁February	-11104
▁Khamenei	-11105
▁höchsten	-11106
etherlands	-11107
▁Emissions	-11108
▁Netanyahu	-11109
▁wohlhaben	-11110
▁beeinträcht	-11111
▁essentially	-11112
▁verursachen	-11113
▁kurzfristige	-11114
▁gleichermaßen	-11115
▁Gewerkschaften	-11116
AV	-11117
दी	-11118
ेल	-11119
mod	-11120
▁उस	-11121
▁bzw	-11122
schau	-11123
ublik	-11124
▁Gulf	-11125
▁evol	-11126
▁phen	-11127
hafter	-11128
olvent	-11129
ündete	-11130
▁apart	-11131
▁birth	-11132
▁plaus	-11133
flanzen	-11134
▁rescue	-11135
▁umfang	-11136
▁weaker	-11137
▁Importe	-11138
▁Komment	-11139
▁command	-11140
▁figures	-11141
▁imagine	-11142
▁nominal	-11143
▁realize	-11144
▁Konfront	-11145
▁ambitious	-11146
▁convinced	-11147
▁Streitkräfte	-11148
▁professional	-11149
AG	-11150
द्य	-11151
adow	-11152
lege	-11153
oman	-11154
▁Sea	-11155
andem	-11156
gemon	-11157
okoll	-11158
urcht	-11159
▁Phän	-11160
▁valu	-11161
leiden	-11162
lichem	-11163
ouverne	-11164
▁Trends	-11165
▁teilen	-11166
security	-11167
▁Fernseh	-11168
▁condemn	-11169
einnahmen	-11170
▁Hollande	-11171
▁annually	-11172
▁failures	-11173
▁emergence	-11174
▁folgenden	-11175
▁gefährdet	-11176
▁accounting	-11177
▁bescheiden	-11178
▁dramatisch	-11179
▁Fortunately	-11180
▁Netherlands	-11181
hers	-11182
chnet	-11183
ifest	-11184
▁Mont	-11185
▁Rebe	-11186
▁proc	-11187
ashion	-11188
▁Mobil	-11189
▁Wicht	-11190
absicht	-11191
enhouse	-11192
pressed	-11193
▁intent	-11194
▁weight	-11195
istently	-11196
▁replace	-11197
▁Gefangen	-11198
▁Schweden	-11199
▁rejected	-11200
▁replaced	-11201
▁institutionelle	-11202
ros	-11203
free	-11204
atell	-11205
class	-11206
lines	-11207
uters	-11208
itable	-11209
▁anges	-11210
▁angew	-11211
▁cells	-11212
▁image	-11213
▁reass	-11214
anlagen	-11215
▁Rights	-11216
▁Territ	-11217
probleme	-11218
▁erfüllt	-11219
▁standing	-11220
▁surround	-11221
▁Countries	-11222
▁achieving	-11223
▁benötigen	-11224
▁dependent	-11225
▁gradually	-11226
▁engagement	-11227
▁investiert	-11228
▁Perspektive	-11229
▁Sparmaßnahmen	-11230
ES	-11231
bü	-11232
va	-11233
mas	-11234
änz	-11235
▁4.	-11236
▁15%	-11237
▁Sho	-11238
▁sah	-11239
Assad	-11240
known	-11241
▁Komm	-11242
▁sunn	-11243
▁ther	-11244
▁Holoc	-11245
▁badly	-11246
▁greif	-11247
▁wahre	-11248
▁Denken	-11249
▁Leiden	-11250
▁Liefer	-11251
▁unfair	-11252
▁viable	-11253
▁erkannt	-11254
▁paralle	-11255
▁vorherr	-11256
▁Terroran	-11257
▁geschieht	-11258
▁Vorschläge	-11259
▁lateinamer	-11260
▁Gerichtshof	-11261
▁Voraussetzung	-11262
gem	-11263
zin	-11264
▁Ed	-11265
grow	-11266
oriz	-11267
rage	-11268
▁neo	-11269
▁squ	-11270
▁öff	-11271
hungs	-11272
▁Park	-11273
▁fand	-11274
▁tort	-11275
gested	-11276
sprodu	-11277
▁Fisch	-11278
▁Klein	-11279
esischen	-11280
orthodox	-11281
rebungen	-11282
▁Charles	-11283
▁Stellen	-11284
▁healthy	-11285
▁wollten	-11286
▁Krankenh	-11287
▁Szenario	-11288
▁equality	-11289
▁intended	-11290
▁leichter	-11291
▁regarded	-11292
▁verlangt	-11293
▁periphery	-11294
▁Verteilung	-11295
▁akzeptiert	-11296
▁denjenigen	-11297
▁inevitably	-11298
▁überrascht	-11299
▁anhaltenden	-11300
▁flexibility	-11301
▁nachhaltigen	-11302
▁entrepreneurs	-11303
NP	-11304
यु	-11305
रह	-11306
्ह	-11307
▁AKP	-11308
▁Pen	-11309
asste	-11310
▁बहुत	-11311
▁2005,	-11312
▁Czech	-11313
▁Micro	-11314
▁gives	-11315
▁instr	-11316
▁stieg	-11317
Staaten	-11318
▁proced	-11319
▁reicht	-11320
▁Defense	-11321
▁claimed	-11322
▁conserv	-11323
▁einheit	-11324
▁herbeiz	-11325
verfahren	-11326
▁Angriffe	-11327
▁kostspiel	-11328
▁Erkenntnis	-11329
▁controvers	-11330
▁verlangsam	-11331
▁accompanied	-11332
”,	-11333
oor	-11334
uns	-11335
von	-11336
emit	-11337
ernt	-11338
setz	-11339
stark	-11340
▁Sign	-11341
▁soph	-11342
▁vacc	-11343
▁wave	-11344
kannte	-11345
schech	-11346
▁Board	-11347
▁decre	-11348
frieden	-11349
zahlung	-11350
▁Aspekt	-11351
▁Sicher	-11352
▁ergibt	-11353
▁erlaub	-11354
▁Sektors	-11355
▁dealing	-11356
▁Eindruck	-11357
▁einfluss	-11358
▁phenomen	-11359
▁threaten	-11360
▁ansteigen	-11361
▁plötzlich	-11362
▁discipline	-11363
▁stagnation	-11364
▁beschränken	-11365
▁moralischen	-11366
▁notwendigen	-11367
▁stattdessen	-11368
uty	-11369
kont	-11370
läuf	-11371
▁Arz	-11372
mächt	-11373
upted	-11374
▁Brown	-11375
▁guter	-11376
angriff	-11377
▁abzusch	-11378
▁failing	-11379
▁reserve	-11380
▁sophistic	-11381
▁greenhouse	-11382
▁ländlichen	-11383
▁television	-11384
▁volatility	-11385
▁Extremisten	-11386
▁journalists	-11387
▁expenditures	-11388
▁herbeizuführen	-11389
LO	-11390
era	-11391
rot	-11392
बंध	-11393
्यों	-11394
▁90%	-11395
▁Vis	-11396
essor	-11397
▁Cypr	-11398
erwart	-11399
▁Lehre	-11400
▁Peace	-11401
▁Tempo	-11402
reement	-11403
▁depart	-11404
sprochen	-11405
▁Unruhen	-11406
▁dismiss	-11407
▁andauern	-11408
▁examples	-11409
▁identify	-11410
▁schwache	-11411
Sicherheits	-11412
▁addressing	-11413
▁preventing	-11414
▁überlassen	-11415
finanzierung	-11416
▁obligations	-11417
▁entsprechend	-11418
▁successfully	-11419
▁ausgeschlossen	-11420
mt	-11421
45;	-11422
bit	-11423
▁bi	-11424
airo	-11425
alts	-11426
band	-11427
fekt	-11428
ifth	-11429
ulse	-11430
▁Are	-11431
▁swe	-11432
▁töd	-11433
level	-11434
schad	-11435
third	-11436
▁forg	-11437
▁schi	-11438
▁sele	-11439
▁send	-11440
▁2000,	-11441
▁Urspr	-11442
▁flood	-11443
▁kinds	-11444
▁erkenn	-11445
▁passed	-11446
vermögen	-11447
▁beginnt	-11448
▁Thatcher	-11449
▁behalten	-11450
▁elements	-11451
▁keinerlei	-11452
▁promising	-11453
▁verschlim	-11454
▁irakischen	-11455
▁nineteenth	-11456
▁regardless	-11457
▁Republicans	-11458
▁aufzunehmen	-11459
▁verteidigen	-11460
▁Wiederaufbau	-11461
▁europäischer	-11462
▁zusätzlichen	-11463
▁ökonomischen	-11464
dro	-11465
ray	-11466
upp	-11467
iche	-11468
pert	-11469
stat	-11470
äume	-11471
▁Cur	-11472
▁hyp	-11473
▁Öff	-11474
blase	-11475
▁Abdu	-11476
▁Erde	-11477
▁Hass	-11478
▁knew	-11479
▁scar	-11480
▁tack	-11481
▁Geber	-11482
▁count	-11483
▁speed	-11484
▁Überr	-11485
▁Rechen	-11486
▁buying	-11487
▁konkre	-11488
▁overse	-11489
bewegung	-11490
▁Absicht	-11491
▁autonom	-11492
▁budgets	-11493
▁creates	-11494
▁weithin	-11495
▁Existenz	-11496
▁Versuche	-11497
▁einzusch	-11498
▁normalen	-11499
▁offenkund	-11500
▁organized	-11501
▁suggested	-11502
▁university	-11503
▁verschärft	-11504
▁instruments	-11505
▁Administration	-11506
).	-11507
Es	-11508
kin	-11509
▁fü	-11510
▁था	-11511
enty	-11512
▁tät	-11513
igere	-11514
ilome	-11515
secut	-11516
▁1992	-11517
▁Bret	-11518
▁wake	-11519
▁Author	-11520
▁Peking	-11521
▁angest	-11522
▁zeigte	-11523
▁exactly	-11524
▁theoret	-11525
imination	-11526
inedschad	-11527
▁Schatten	-11528
▁ziemlich	-11529
▁Charakter	-11530
▁mortgages	-11531
▁sowjetischen	-11532
▁Unterdrückung	-11533
rog	-11534
च्च	-11535
▁Ac	-11536
▁Kn	-11537
pons	-11538
what	-11539
xual	-11540
▁Mac	-11541
▁anc	-11542
▁aud	-11543
▁dun	-11544
agger	-11545
benen	-11546
hance	-11547
olden	-11548
oples	-11549
▁acts	-11550
carbon	-11551
iertes	-11552
jordan	-11553
▁Immer	-11554
▁youth	-11555
▁Vertre	-11556
▁republ	-11557
▁Erfolge	-11558
▁ausgebil	-11559
▁auslösen	-11560
▁migrants	-11561
▁systemic	-11562
▁Eigentums	-11563
▁Zeitalter	-11564
▁unzureich	-11565
ischerweise	-11566
▁Verwendung	-11567
▁concerning	-11568
▁introduced	-11569
▁kulturelle	-11570
▁previously	-11571
▁Bestandteil	-11572
▁Liquiditäts	-11573
▁Alternativen	-11574
▁potenziellen	-11575
GB	-11576
ror	-11577
▁li	-11578
-199	-11579
llah	-11580
ukle	-11581
▁Hat	-11582
▁Tim	-11583
▁anb	-11584
agten	-11585
▁born	-11586
▁crow	-11587
▁exit	-11588
▁इसके	-11589
angers	-11590
arters	-11591
integr	-11592
ointed	-11593
▁alike	-11594
ightened	-11595
sekretär	-11596
▁calling	-11597
▁notably	-11598
▁Aufnahme	-11599
▁Versagen	-11600
▁dominant	-11601
▁reaching	-11602
▁grundsätz	-11603
▁Niederlage	-11604
▁Westjordan	-11605
▁zusätzlich	-11606
▁verbundenen	-11607
▁Mittelschicht	-11608
CH	-11609
Ges	-11610
▁--	-11611
▁वै	-11612
rest	-11613
▁Bon	-11614
▁Lux	-11615
▁NGO	-11616
China	-11617
parat	-11618
▁Rand	-11619
▁bere	-11620
▁bloß	-11621
▁horr	-11622
▁root	-11623
▁rose	-11624
risiko	-11625
▁doesn	-11626
▁micro	-11627
▁combat	-11628
▁geschw	-11629
▁großes	-11630
▁origin	-11631
sprozess	-11632
▁applied	-11633
▁beunruh	-11634
▁schrieb	-11635
▁balanced	-11636
▁concentr	-11637
▁mistakes	-11638
▁bedeutsam	-11639
▁überleben	-11640
▁Strukturen	-11641
▁Modernisierung	-11642
▁demokratischer	-11643
NCE	-11644
aan	-11645
▁Ay	-11646
stes	-11647
utin	-11648
▁150	-11649
▁Bah	-11650
▁wus	-11651
ergeb	-11652
idden	-11653
▁ball	-11654
▁undo	-11655
▁निर्	-11656
NCETON	-11657
kandid	-11658
ukrain	-11659
▁usual	-11660
▁Anlass	-11661
▁Budget	-11662
▁custom	-11663
▁humans	-11664
function	-11665
schnitts	-11666
▁finding	-11667
▁seitens	-11668
▁streets	-11669
▁zuletzt	-11670
▁Nachhalt	-11671
▁disorder	-11672
▁vorsicht	-11673
bekämpfung	-11674
▁PRINCETON	-11675
▁Singapore	-11676
▁purchases	-11677
▁Zivilisten	-11678
▁Einstellung	-11679
▁Katastrophen	-11680
▁ausgeglichen	-11681
▁Schlussfolger	-11682
▁Westjordanland	-11683
▁kommunistischen	-11684
ोज	-11685
ids	-11686
▁Bh	-11687
apat	-11688
moil	-11689
ärer	-11690
▁Yes	-11691
▁dur	-11692
▁rig	-11693
agues	-11694
anter	-11695
enzen	-11696
reien	-11697
▁1995	-11698
▁Hard	-11699
▁Schi	-11700
▁True	-11701
▁gele	-11702
▁läng	-11703
▁उत्प	-11704
▁Revol	-11705
essions	-11706
▁Kanada	-11707
▁exists	-11708
▁notion	-11709
▁underp	-11710
▁engaged	-11711
▁umgehen	-11712
▁Friedman	-11713
▁chemical	-11714
▁deterior	-11715
▁Ablehnung	-11716
▁bestätigt	-11717
▁dominated	-11718
▁syrischen	-11719
▁guarantees	-11720
gemeinschaft	-11721
▁Beteiligung	-11722
▁Unterdessen	-11723
▁explanation	-11724
▁natürlichen	-11725
▁argumentiert	-11726
▁Großbritanniens	-11727
चार	-11728
-201	-11729
asus	-11730
mach	-11731
▁Who	-11732
▁hab	-11733
ommod	-11734
▁heft	-11735
träger	-11736
ulated	-11737
▁Frühl	-11738
▁Shang	-11739
▁inten	-11740
▁yield	-11741
actions	-11742
meister	-11743
züglich	-11744
▁gather	-11745
▁mental	-11746
▁ehrgeiz	-11747
Notenbank	-11748
▁Gedanken	-11749
▁adequate	-11750
▁ausgeben	-11751
▁erinnert	-11752
▁managers	-11753
▁Auseinanders	-11754
▁consolidation	-11755
akh	-11756
dass	-11757
viel	-11758
▁zun	-11759
▁Äng	-11760
▁Bash	-11761
▁desp	-11762
▁hero	-11763
aining	-11764
zenten	-11765
▁Erwer	-11766
▁enemy	-11767
▁hören	-11768
▁unpop	-11769
esented	-11770
▁Energy	-11771
▁Wunder	-11772
▁glaubt	-11773
ierender	-11774
ifiziert	-11775
▁Jacques	-11776
▁Steuers	-11777
▁comment	-11778
▁frühere	-11779
▁gelingt	-11780
▁operate	-11781
▁privile	-11782
▁refused	-11783
▁schrump	-11784
verbrauch	-11785
▁Abdullah	-11786
▁Befürwor	-11787
▁ausdrück	-11788
▁Besorgnis	-11789
▁Holocaust	-11790
▁anerkannt	-11791
▁unwilling	-11792
verschmutzung	-11793
▁difficulties	-11794
▁persönlichen	-11795
▁diplomatische	-11796
wissenschaftler	-11797
0027	-11798
indu	-11799
mosp	-11800
oses	-11801
▁bio	-11802
▁maß	-11803
ähern	-11804
ämmen	-11805
▁Post	-11806
▁Test	-11807
koreas	-11808
nisses	-11809
▁Gates	-11810
▁Imper	-11811
▁Verst	-11812
▁Wende	-11813
▁hielt	-11814
▁Unlike	-11815
▁Werten	-11816
▁brings	-11817
▁sheets	-11818
▁späten	-11819
scheidet	-11820
▁Supreme	-11821
▁empower	-11822
▁evident	-11823
▁heutige	-11824
▁parents	-11825
▁turmoil	-11826
▁Gouverne	-11827
▁Vielfalt	-11828
▁geringen	-11829
▁geändert	-11830
▁Transport	-11831
▁eintreten	-11832
▁enthalten	-11833
▁scheitern	-11834
▁verleihen	-11835
▁profitiert	-11836
▁zahlreiche	-11837
▁demonstrate	-11838
organisationen	-11839
-7	-11840
Le	-11841
ädt	-11842
▁Ra	-11843
schr	-11844
▁Hum	-11845
▁Tab	-11846
▁col	-11847
using	-11848
ünfte	-11849
▁suic	-11850
recken	-11851
ändler	-11852
▁entit	-11853
▁mitig	-11854
▁waste	-11855
▁Tenden	-11856
▁courts	-11857
▁punish	-11858
▁voting	-11859
gleichen	-11860
▁content	-11861
▁enhance	-11862
▁expense	-11863
▁Betracht	-11864
▁Schiiten	-11865
▁Stellung	-11866
▁riesigen	-11867
▁separate	-11868
▁Jerusalem	-11869
▁activists	-11870
▁zugunsten	-11871
▁Resolution	-11872
▁Finanzmärkten	-11873
);	-11874
pp	-11875
tin	-11876
▁4,	-11877
▁Dre	-11878
▁hur	-11879
▁बना	-11880
▁Pact	-11881
▁hilf	-11882
icking	-11883
rative	-11884
▁droht	-11885
▁ruled	-11886
▁sogen	-11887
utation	-11888
▁Center	-11889
▁Schwar	-11890
▁ukrain	-11891
schieden	-11892
▁Gazprom	-11893
▁contrad	-11894
▁respekt	-11895
▁gesunken	-11896
▁verdient	-11897
icherungen	-11898
interessen	-11899
▁Intellekt	-11900
▁aufrechtz	-11901
▁einfachen	-11902
▁nuklearen	-11903
▁philosoph	-11904
▁Australien	-11905
▁bestehende	-11906
▁Governments	-11907
िश	-11908
ini	-11909
ipe	-11910
äle	-11911
garn	-11912
ocol	-11913
rise	-11914
▁Don	-11915
▁via	-11916
▁zut	-11917
asiat	-11918
spart	-11919
▁Früh	-11920
worten	-11921
▁Labor	-11922
▁alter	-11923
▁track	-11924
jection	-11925
▁Besatz	-11926
▁Brutto	-11927
▁Gehirn	-11928
▁plural	-11929
▁दुनिया	-11930
▁Medizin	-11931
▁fördert	-11932
▁vergröß	-11933
sterreich	-11934
▁begegnen	-11935
▁collabor	-11936
▁Abschwung	-11937
▁concluded	-11938
▁conducted	-11939
▁inadequate	-11940
▁konvention	-11941
▁übernommen	-11942
▁Bewusstsein	-11943
▁Einwanderer	-11944
▁Schätzungen	-11945
▁coordination	-11946
त्व	-11947
edev	-11948
rete	-11949
trin	-11950
▁Ara	-11951
▁Ill	-11952
▁Kor	-11953
▁Prü	-11954
▁TPP	-11955
acted	-11956
deckt	-11957
iktor	-11958
▁Chem	-11959
▁häuf	-11960
ktiken	-11961
▁weist	-11962
etschen	-11963
folgung	-11964
▁actual	-11965
▁placed	-11966
▁proven	-11967
mosphäre	-11968
▁Geschle	-11969
▁accumul	-11970
uerhalten	-11971
zubringen	-11972
▁exercise	-11973
▁fürchten	-11974
▁niedrige	-11975
▁drastisch	-11976
▁isolation	-11977
▁stimulate	-11978
▁vorbereit	-11979
▁natürliche	-11980
▁Überschuss	-11981
▁shareholders	-11982
▁durchzusetzen	-11983
za	-11984
500	-11985
hil	-11986
द्ध	-11987
▁26	-11988
▁Ol	-11989
iern	-11990
prof	-11991
wegs	-11992
▁Let	-11993
▁तरह	-11994
ompet	-11995
onged	-11996
▁1994	-11997
▁सबसे	-11998
▁genes	-11999
rüstung	-12000
steller	-12001
▁Direkt	-12002
▁bodies	-12003
▁displa	-12004
ाष्ट्रीय	-12005
▁Bretton	-12006
▁triumph	-12007
▁version	-12008
arbeitung	-12009
▁Befürcht	-12010
Wirtschaft	-12011
▁Pakistans	-12012
▁civilians	-12013
▁withdrawal	-12014
▁militärischer	-12015
▁revolutionary	-12016
HI	-12017
वेश	-12018
▁TB	-12019
▁ec	-12020
heil	-12021
▁CEO	-12022
▁USD	-12023
▁anx	-12024
ugend	-12025
ymmet	-12026
▁Dsch	-12027
▁text	-12028
clical	-12029
fällen	-12030
normal	-12031
▁bauen	-12032
▁heard	-12033
▁monet	-12034
▁offic	-12035
▁posed	-12036
country	-12037
▁Mächte	-12038
▁Policy	-12039
▁joined	-12040
▁neigen	-12041
▁Hillary	-12042
▁Niemand	-12043
▁Wandels	-12044
▁enemies	-12045
▁ständig	-12046
▁welcome	-12047
▁gelungen	-12048
▁schlagen	-12049
krankungen	-12050
▁demanding	-12051
▁eliminate	-12052
▁pollution	-12053
▁seemingly	-12054
lexibilität	-12055
▁Kompromiss	-12056
▁Kopenhagen	-12057
▁Peripherie	-12058
▁irrational	-12059
kriminierung	-12060
▁Kohlenstoff	-12061
▁Mittelpunkt	-12062
▁beschlossen	-12063
▁Überzeugung	-12064
▁Verschuldung	-12065
▁participants	-12066
▁unabhängigen	-12067
▁Ahmadinedschad	-12068
▁entsprechenden	-12069
▁veröffentlicht	-12070
pla	-12071
तिक	-12072
स्त	-12073
▁28	-12074
math	-12075
priv	-12076
senz	-12077
▁bit	-12078
▁1945	-12079
▁rank	-12080
▁कारण	-12081
zellen	-12082
▁2011,	-12083
▁herum	-12084
▁polar	-12085
▁redis	-12086
leichen	-12087
▁gelöst	-12088
▁offene	-12089
▁resort	-12090
▁trifft	-12091
beschäft	-12092
▁painful	-12093
entscheid	-12094
▁Invasion	-12095
▁resulted	-12096
lossenheit	-12097
zentration	-12098
▁Derartige	-12099
▁Milliarde	-12100
▁aftermath	-12101
▁attraktiv	-12102
▁aufnehmen	-12103
▁emergency	-12104
▁Grundlagen	-12105
▁heutzutage	-12106
▁beeinflusst	-12107
▁complicated	-12108
▁kulturellen	-12109
amerikanische	-12110
▁Bereitstellung	-12111
▁sustainability	-12112
्यव	-12113
▁Ku	-12114
▁लग	-12115
▁alt	-12116
▁Boom	-12117
▁arme	-12118
▁verf	-12119
onomie	-12120
testen	-12121
▁accur	-12122
▁aware	-12123
▁minds	-12124
▁south	-12125
ehalten	-12126
izieren	-12127
▁Public	-12128
▁Straße	-12129
▁Temper	-12130
▁eingeb	-12131
▁escape	-12132
▁permit	-12133
▁prohib	-12134
▁Anstatt	-12135
▁debates	-12136
▁genutzt	-12137
▁Öffnung	-12138
positions	-12139
▁Aktionen	-12140
▁Bilanzen	-12141
▁erfahren	-12142
▁extended	-12143
▁learning	-12144
▁effektive	-12145
▁versuchte	-12146
▁Konkurrenz	-12147
▁verglichen	-12148
▁beschleunigen	-12149
▁Steuersenkungen	-12150
di	-12151
aur	-12152
▁Hy	-12153
ibel	-12154
▁Wil	-12155
▁wis	-12156
otten	-12157
techn	-12158
पूर्ण	-12159
▁cars	-12160
▁exam	-12161
eignet	-12162
wertet	-12163
▁Dauer	-12164
▁Guant	-12165
▁Hände	-12166
▁Tunes	-12167
▁chaos	-12168
▁heads	-12169
▁hilft	-12170
▁newly	-12171
▁vorzu	-12172
esearch	-12173
▁Moskau	-12174
▁atmosp	-12175
▁backed	-12176
▁harder	-12177
▁united	-12178
veraging	-12179
▁Aspekte	-12180
▁Gesicht	-12181
▁Somalia	-12182
▁automat	-12183
▁eastern	-12184
▁inflows	-12185
ifizieren	-12186
▁Californ	-12187
▁Verträge	-12188
▁bewirken	-12189
▁pursuing	-12190
▁returned	-12191
▁gefährden	-12192
▁gewalttät	-12193
▁repräsent	-12194
▁Nachfolger	-12195
▁expression	-12196
▁Kapazitäten	-12197
▁derzeitigen	-12198
▁effectiveness	-12199
▁kontrollieren	-12200
▁Marktwirtschaft	-12201
äuß	-12202
anst	-12203
▁Hur	-12204
▁dys	-12205
atter	-12206
cript	-12207
emale	-12208
utrit	-12209
vedev	-12210
▁Nazi	-12211
raucht	-12212
▁Kunst	-12213
▁Moham	-12214
▁essen	-12215
▁prede	-12216
▁teuer	-12217
▁Briten	-12218
▁shares	-12219
▁verlie	-12220
▁Spanish	-12221
▁assumed	-12222
▁concent	-12223
▁minimum	-12224
▁positiv	-12225
▁stützen	-12226
▁vorauss	-12227
▁appeared	-12228
▁believes	-12229
▁decisive	-12230
▁released	-12231
▁schweren	-12232
▁sentiment	-12233
▁Bewegungen	-12234
▁approaches	-12235
▁beschäftigt	-12236
▁berücksichtigt	-12237
▁simultaneously	-12238
▁berücksichtigen	-12239
िम	-12240
andin	-12241
poses	-12242
schte	-12243
tedly	-12244
üsten	-12245
ground	-12246
vertra	-12247
▁anger	-12248
▁eröff	-12249
illance	-12250
▁Netanj	-12251
▁Normen	-12252
aufsicht	-12253
oriented	-12254
stimmung	-12255
▁Singapur	-12256
▁gestärkt	-12257
▁zerstört	-12258
ktionismus	-12259
▁Pakistani	-12260
▁collapsed	-12261
▁ermutigen	-12262
▁executive	-12263
▁expressed	-12264
▁intellekt	-12265
▁bankruptcy	-12266
▁Arbeitgeber	-12267
▁Islamischen	-12268
▁schwierigen	-12269
▁versprochen	-12270
IF	-12271
iri	-12272
▁7%	-12273
abet	-12274
▁400	-12275
halte	-12276
▁1979	-12277
▁Gast	-12278
▁Kürz	-12279
▁crop	-12280
▁ours	-12281
hrough	-12282
streit	-12283
▁lebih	-12284
▁Sowohl	-12285
▁barely	-12286
▁hunger	-12287
▁verwir	-12288
▁element	-12289
▁granted	-12290
▁Medvedev	-12291
▁Spielraum	-12292
▁accession	-12293
▁ambitions	-12294
▁verheeren	-12295
▁regelmäßig	-12296
▁Bürgerkrieg	-12297
▁potenzielle	-12298
▁threatening	-12299
▁Einrichtungen	-12300
▁rechtfertigen	-12301
▁Sicherheitsrat	-12302
uma	-12303
uden	-12304
▁Sam	-12305
▁Tay	-12306
▁cas	-12307
▁द्व	-12308
▁साथ	-12309
Außen	-12310
▁getö	-12311
▁अंतर	-12312
ichern	-12313
includ	-12314
vollen	-12315
▁polls	-12316
▁twice	-12317
gehende	-12318
ipeline	-12319
▁Solche	-12320
▁advice	-12321
▁extend	-12322
▁konkur	-12323
▁transl	-12324
▁Germans	-12325
▁Verletz	-12326
▁alleged	-12327
▁großzüg	-12328
▁repress	-12329
▁spricht	-12330
▁stories	-12331
akthrough	-12332
ufficient	-12333
▁Chairman	-12334
▁expanded	-12335
▁managing	-12336
▁schlicht	-12337
▁Einwohner	-12338
▁Prognosen	-12339
▁gefördert	-12340
▁happening	-12341
▁liberalen	-12342
▁scheinbar	-12343
atastrophal	-12344
▁Stabilitäts	-12345
▁Untersuchung	-12346
▁capabilities	-12347
▁Durchschnitts	-12348
▁Finanzsystems	-12349
▁Gemeinschaften	-12350
▁diplomatischen	-12351
cke	-12352
eds	-12353
SSEL	-12354
onia	-12355
akten	-12356
haber	-12357
▁1996	-12358
▁Mess	-12359
▁barg	-12360
▁peak	-12361
▁pict	-12362
▁होती	-12363
irable	-12364
ächung	-12365
inished	-12366
▁Bedarf	-12367
▁anhand	-12368
▁divide	-12369
▁wisdom	-12370
▁Freunde	-12371
▁Paradox	-12372
▁Verlauf	-12373
▁höherer	-12374
▁warning	-12375
including	-12376
▁Differen	-12377
▁schnelle	-12378
▁Authority	-12379
▁Mittleren	-12380
▁hilfreich	-12381
▁Atmosphäre	-12382
▁Aufwertung	-12383
▁verbreitet	-12384
▁verschärfen	-12385
▁contribution	-12386
▁fundamentally	-12387
▁implementation	-12388
कर	-12389
ोध	-12390
▁8%	-12391
▁अम	-12392
▁बी	-12393
redu	-12394
▁Abd	-12395
▁küm	-12396
athol	-12397
▁Ghan	-12398
▁plus	-12399
Gipfel	-12400
ränken	-12401
▁Refor	-12402
▁Yemen	-12403
▁aufer	-12404
▁cyber	-12405
▁doctr	-12406
▁equip	-12407
▁voice	-12408
▁कार्य	-12409
messene	-12410
ränkung	-12411
▁Balkan	-12412
▁ließen	-12413
▁opened	-12414
▁weaken	-12415
▁wenden	-12416
▁Gebiete	-12417
▁Richard	-12418
▁anticip	-12419
▁peoples	-12420
▁standen	-12421
▁Geschäft	-12422
▁systemat	-12423
▁Microsoft	-12424
▁Schwächen	-12425
▁Teilnahme	-12426
▁ignoriert	-12427
politischer	-12428
▁Government	-12429
▁beseitigen	-12430
▁controlled	-12431
▁subsequent	-12432
▁Ahmadinejad	-12433
“-	-12434
räge	-12435
▁tat	-12436
&#45;	-12437
antas	-12438
dring	-12439
elben	-12440
estim	-12441
schul	-12442
wedew	-12443
yrann	-12444
▁1967	-12445
▁dank	-12446
▁pure	-12447
▁write	-12448
atholic	-12449
▁Araber	-12450
▁Armuts	-12451
▁Inland	-12452
▁enrich	-12453
▁fueled	-12454
▁intell	-12455
▁slowly	-12456
▁sparen	-12457
▁endgült	-12458
▁negativ	-12459
▁renewed	-12460
▁Material	-12461
▁revealed	-12462
▁targeted	-12463
sicherheit	-12464
▁ownership	-12465
▁zerstören	-12466
▁Widerspruch	-12467
▁verschaffen	-12468
wissenschaften	-12469
SF	-12470
hle	-12471
win	-12472
oyal	-12473
▁Law	-12474
▁len	-12475
auert	-12476
heast	-12477
wicht	-12478
▁blam	-12479
▁dark	-12480
▁terr	-12481
weiger	-12482
▁Diagn	-12483
▁Endes	-12484
▁facts	-12485
▁geste	-12486
▁rebal	-12487
▁McCain	-12488
▁bigger	-12489
▁famous	-12490
▁traged	-12491
▁verank	-12492
finition	-12493
stattung	-12494
▁Erkennt	-12495
▁Kranken	-12496
▁Modelle	-12497
▁Serbien	-12498
▁Thaksin	-12499
▁ersetzt	-12500
▁schwere	-12501
▁variety	-12502
▁dasselbe	-12503
▁weakened	-12504
▁einfacher	-12505
▁conclusion	-12506
▁encouraged	-12507
▁Unfähigkeit	-12508
▁alternatives	-12509
▁katastrophal	-12510
▁sophisticated	-12511
▁accountability	-12512
▁u	-12513
umi	-12514
ford	-12515
▁bom	-12516
▁mas	-12517
▁vac	-12518
▁ört	-12519
emark	-12520
gnost	-12521
nimmt	-12522
▁Auge	-12523
▁spur	-12524
▁tele	-12525
eständ	-12526
mining	-12527
mächte	-12528
▁Große	-12529
▁Reise	-12530
▁consc	-12531
▁forts	-12532
▁Militä	-12533
▁Result	-12534
▁disput	-12535
▁estate	-12536
▁Further	-12537
▁Gewicht	-12538
▁Kohlend	-12539
▁hierfür	-12540
▁konstru	-12541
▁liefern	-12542
▁Medwedew	-12543
▁responses	-12544
▁vereinbar	-12545
▁consequence	-12546
▁Insbesondere	-12547
▁Verbesserungen	-12548
▁Dienstleistungs	-12549
egu	-12550
umn	-12551
ध्य	-12552
▁od	-12553
▁जी	-12554
ammt	-12555
wegt	-12556
chung	-12557
igste	-12558
kräft	-12559
zweif	-12560
▁Drag	-12561
▁poln	-12562
▁zuge	-12563
eitert	-12564
eltsin	-12565
ächten	-12566
▁Autos	-12567
▁Ersch	-12568
▁Tragö	-12569
▁Vater	-12570
▁tests	-12571
▁volle	-12572
▁Binnen	-12573
▁Persön	-12574
▁Schlim	-12575
▁Should	-12576
▁schritt	-12577
▁Atlantic	-12578
▁Demonstr	-12579
▁Krediten	-12580
▁annivers	-12581
▁preserve	-12582
▁suddenly	-12583
▁Deutschen	-12584
▁Migration	-12585
▁begrenzen	-12586
▁definiert	-12587
▁weakening	-12588
ministerium	-12589
▁Temperatur	-12590
▁ethnischen	-12591
▁instrument	-12592
▁protecting	-12593
▁Bewältigung	-12594
verhandlungen	-12595
▁strengthened	-12596
▁Palästinensern	-12597
Wir	-12598
ida	-12599
iga	-12600
▁मा	-12601
reen	-12602
träg	-12603
▁Abu	-12604
▁Fuk	-12605
▁Mug	-12606
▁jur	-12607
▁pie	-12608
estag	-12609
▁Cuba	-12610
▁Gaul	-12611
▁lawy	-12612
▁Medic	-12613
▁aside	-12614
▁knapp	-12615
▁läuft	-12616
▁Kontin	-12617
▁Maastr	-12618
▁conven	-12619
▁einger	-12620
▁gender	-12621
▁leaves	-12622
▁manner	-12623
▁tariff	-12624
aufnahme	-12625
▁Allianz	-12626
▁falsche	-12627
▁gesenkt	-12628
▁Debatten	-12629
▁Drittens	-12630
▁emphasis	-12631
▁erzeugen	-12632
▁gegründet	-12633
▁statement	-12634
▁beeindruck	-12635
▁schlechten	-12636
▁improvement	-12637
गत	-12638
GDP	-12639
lem	-12640
ारे	-12641
moud	-12642
oked	-12643
spir	-12644
▁bag	-12645
finan	-12646
▁ally	-12647
▁moun	-12648
ivität	-12649
regeln	-12650
▁Innen	-12651
▁James	-12652
▁folgt	-12653
verhält	-12654
▁Effekt	-12655
▁Erklär	-12656
▁Gaulle	-12657
▁Ronald	-12658
▁Ungarn	-12659
▁criter	-12660
▁harmon	-12661
achfrage	-12662
fassungs	-12663
▁Mahmoud	-12664
▁Quartal	-12665
▁absolut	-12666
▁arbeits	-12667
▁diverse	-12668
▁eigenes	-12669
▁höchste	-12670
▁minimal	-12671
▁station	-12672
▁vermehr	-12673
▁Colombia	-12674
▁Zinssatz	-12675
▁besitzen	-12676
ifizierung	-12677
▁betrachte	-12678
▁ausreichen	-12679
▁frequently	-12680
▁Welthandels	-12681
IL	-12682
ham	-12683
pol	-12684
rep	-12685
ाने	-12686
alty	-12687
isan	-12688
▁11,	-12689
▁Ham	-12690
▁देख	-12691
▁रोग	-12692
abile	-12693
etter	-12694
ulate	-12695
▁intr	-12696
▁trap	-12697
kontro	-12698
lament	-12699
rating	-12700
▁Alger	-12701
▁Annan	-12702
▁admit	-12703
▁blind	-12704
▁drawn	-12705
▁index	-12706
▁klass	-12707
▁attrib	-12708
▁disapp	-12709
▁tiefer	-12710
altungen	-12711
▁Männern	-12712
▁destroy	-12713
▁species	-12714
▁Reichtum	-12715
▁begannen	-12716
▁hochrang	-12717
▁occasion	-12718
▁original	-12719
▁predecess	-12720
▁realistic	-12721
▁schwächen	-12722
mechanismen	-12723
▁consistent	-12724
▁Angelegenheit	-12725
▁Stabilisierung	-12726
sts	-12727
zer	-12728
▁जब	-12729
hard	-12730
▁Jed	-12731
▁Tür	-12732
Islam	-12733
anges	-12734
apers	-12735
mente	-12736
still	-12737
▁Trib	-12738
▁clin	-12739
▁genü	-12740
▁wait	-12741
▁wann	-12742
öglich	-12743
▁1930’	-12744
▁beant	-12745
▁spect	-12746
ubtedly	-12747
verkehr	-12748
▁erhält	-12749
▁leidet	-12750
▁unreal	-12751
▁yields	-12752
utrition	-12753
▁Justice	-12754
▁Tunisia	-12755
▁justify	-12756
schaffung	-12757
▁approval	-12758
▁focusing	-12759
▁vergeben	-12760
▁Autonomie	-12761
▁initially	-12762
▁investing	-12763
▁schweigen	-12764
▁stärkeren	-12765
▁minorities	-12766
▁verwandeln	-12767
▁Mechanismen	-12768
▁anzukurbeln	-12769
▁Kohlendioxid	-12770
ola	-12771
bing	-12772
uded	-12773
west	-12774
▁Lag	-12775
▁Mag	-12776
▁You	-12777
▁fun	-12778
▁red	-12779
▁unb	-12780
▁दवा	-12781
bling	-12782
elled	-12783
ology	-12784
unfts	-12785
ünder	-12786
▁Lula	-12787
▁Ster	-12788
▁halt	-12789
▁Siedl	-12790
▁norms	-12791
▁smart	-12792
▁निवेश	-12793
▁empire	-12794
▁ending	-12795
▁female	-12796
▁inside	-12797
▁mobile	-12798
▁rarely	-12799
grenzung	-12800
▁centers	-12801
▁conduct	-12802
▁nötigen	-12803
▁ultimate	-12804
geordneten	-12805
kontrollen	-12806
▁Isolation	-12807
▁Übergangs	-12808
▁presidents	-12809
▁Brennstoffe	-12810
▁Oppositions	-12811
▁Bestrebungen	-12812
▁substantially	-12813
▁representatives	-12814
DGs	-12815
dly	-12816
tim	-12817
▁6%	-12818
Vert	-12819
outs	-12820
▁Fut	-12821
stran	-12822
▁Stil	-12823
▁indu	-12824
▁beisp	-12825
▁diver	-12826
▁staff	-12827
▁tempt	-12828
▁Option	-12829
▁arrest	-12830
▁ausges	-12831
▁fielen	-12832
▁oppose	-12833
▁strike	-12834
▁weitem	-12835
▁Erfolgs	-12836
▁chronic	-12837
▁illustr	-12838
▁reverse	-12839
▁welchen	-12840
▁Beitritt	-12841
▁Shanghai	-12842
▁somewhat	-12843
proportion	-12844
▁Political	-12845
▁beispiell	-12846
▁generated	-12847
▁wirkliche	-12848
▁Wachstumsp	-12849
▁gefährliche	-12850
▁neighboring	-12851
▁undermining	-12852
▁surveillance	-12853
▁entsprechende	-12854
ev	-12855
hat	-12856
urm	-12857
▁Mr	-12858
rist	-12859
▁Agr	-12860
▁Hom	-12861
▁Kas	-12862
▁jeg	-12863
▁prä	-12864
utete	-12865
ziger	-12866
ögern	-12867
▁Mold	-12868
▁None	-12869
▁Phys	-12870
▁Weil	-12871
▁rock	-12872
holfen	-12873
▁abuse	-12874
▁catch	-12875
▁traff	-12876
artigen	-12877
kannten	-12878
ungslos	-12879
▁Elektr	-12880
▁Mutter	-12881
▁enthus	-12882
▁looked	-12883
▁prepar	-12884
personen	-12885
▁Unglück	-12886
▁ignored	-12887
▁pursued	-12888
▁showing	-12889
▁Catholic	-12890
▁Schröder	-12891
▁medicine	-12892
▁sensible	-12893
geschichte	-12894
▁reluctant	-12895
▁sämtliche	-12896
▁Aufschwung	-12897
▁Islamisten	-12898
▁Positionen	-12899
▁Sichtweise	-12900
▁Todesfälle	-12901
▁extremists	-12902
▁facilities	-12903
▁meaningful	-12904
▁Flüchtlings	-12905
▁anniversary	-12906
▁anschließend	-12907
▁finanzieller	-12908
▁Wachstumsrate	-12909
▁confrontation	-12910
OK	-12911
ugu	-12912
uhr	-12913
oben	-12914
rane	-12915
▁Dän	-12916
▁Nix	-12917
stück	-12918
▁Gipf	-12919
▁Gord	-12920
▁Tier	-12921
▁cast	-12922
▁reck	-12923
▁unaus	-12924
▁unvor	-12925
▁ärmer	-12926
bezogen	-12927
▁zweier	-12928
▁द्वारा	-12929
parteien	-12930
stranten	-12931
▁Mission	-12932
▁Verschw	-12933
▁accused	-12934
▁dispute	-12935
▁Vielzahl	-12936
▁erlangen	-12937
▁reconcil	-12938
▁Ausschuss	-12939
▁erreichte	-12940
▁producing	-12941
▁provision	-12942
▁California	-12943
▁notwendige	-12944
▁ungeachtet	-12945
▁negotiating	-12946
▁Durchschnitt	-12947
rew	-12948
icon	-12949
imit	-12950
lers	-12951
▁Hen	-12952
▁dub	-12953
▁grü	-12954
▁scr	-12955
aaten	-12956
ettet	-12957
▁Gand	-12958
▁Tour	-12959
▁Wurz	-12960
chines	-12961
▁Erder	-12962
▁müsse	-12963
▁widen	-12964
▁Kolumb	-12965
▁Others	-12966
▁strict	-12967
▁vertie	-12968
▁Ängste	-12969
ological	-12970
ziehungs	-12971
▁comfort	-12972
▁courage	-12973
▁Research	-12974
▁advances	-12975
▁befreien	-12976
▁concrete	-12977
▁direkten	-12978
▁disputes	-12979
▁Konflikts	-12980
▁component	-12981
▁gewählten	-12982
▁inability	-12983
▁Erinnerung	-12984
▁colleagues	-12985
▁traditionell	-12986
▁verursachten	-12987
lu	-12988
awa	-12989
iks	-12990
▁ik	-12991
▁मु	-12992
▁Aff	-12993
▁Zer	-12994
र्थिक	-12995
▁schm	-12996
▁umso	-12997
vested	-12998
▁Bruch	-12999
▁Einer	-13000
▁nomin	-13001
▁users	-13002
uential	-13003
▁lieber	-13004
▁unverz	-13005
gelassen	-13006
stritten	-13007
▁Statist	-13008
▁gelernt	-13009
▁getötet	-13010
chnologie	-13011
▁Ostasien	-13012
▁Tunesien	-13013
▁einzelne	-13014
▁Migranten	-13015
▁operation	-13016
▁Maastricht	-13017
▁apparently	-13018
▁breakthrough	-13019
▁herzustellen	-13020
▁medizinische	-13021
▁Übereinkunft	-13022
▁ausländischer	-13023
▁protectionism	-13024
▁discrimination	-13025
DA	-13026
IR	-13027
Tr	-13028
्क	-13029
alg	-13030
ानी	-13031
ason	-13032
dsel	-13033
face	-13034
rank	-13035
▁Rek	-13036
▁fle	-13037
▁रहा	-13038
▁राज	-13039
aters	-13040
sieht	-13041
▁Shin	-13042
▁beur	-13043
▁impr	-13044
enness	-13045
marsch	-13046
ubahan	-13047
urance	-13048
▁Mario	-13049
▁aging	-13050
▁crash	-13051
▁dereg	-13052
▁städt	-13053
atollah	-13054
marktes	-13055
▁exclus	-13056
▁provin	-13057
▁street	-13058
▁unders	-13059
▁veranl	-13060
▁Preisen	-13061
▁distort	-13062
▁erzeugt	-13063
▁solches	-13064
▁reagiert	-13065
▁existence	-13066
▁prisoners	-13067
▁dependence	-13068
▁unemployed	-13069
▁wahrschein	-13070
▁demographic	-13071
US	-13072
ंद	-13073
िर	-13074
iro	-13075
übt	-13076
öpfe	-13077
स्था	-13078
▁clo	-13079
▁erb	-13080
iefst	-13081
▁Alan	-13082
▁Kurd	-13083
fahrts	-13084
iciary	-13085
igrant	-13086
▁Euros	-13087
▁Franc	-13088
▁categ	-13089
▁recip	-13090
achläss	-13091
fähigen	-13092
wirkung	-13093
zusehen	-13094
▁Agency	-13095
▁konzip	-13096
▁offset	-13097
▁spring	-13098
▁talent	-13099
ifically	-13100
▁agieren	-13101
▁animals	-13102
▁stopped	-13103
ightening	-13104
▁academic	-13105
▁annehmen	-13106
productive	-13107
▁auftreten	-13108
▁passieren	-13109
▁transfers	-13110
▁zufrieden	-13111
▁Überrasch	-13112
▁Westeuropa	-13113
▁commission	-13114
▁anschließen	-13115
▁influential	-13116
▁transformed	-13117
schaftswahlen	-13118
▁Erderwärmung	-13119
▁compensation	-13120
▁wahrgenommen	-13121
▁Demonstranten	-13122
वल	-13123
FTA	-13124
▁DP	-13125
fund	-13126
otic	-13127
sthe	-13128
well	-13129
ffekt	-13130
herap	-13131
linie	-13132
▁melt	-13133
▁stal	-13134
quoten	-13135
werden	-13136
▁2004,	-13137
▁2012,	-13138
▁Berat	-13139
▁Feuer	-13140
▁Green	-13141
▁Rumän	-13142
▁Titel	-13143
▁fresh	-13144
▁helps	-13145
▁table	-13146
partner	-13147
▁Mandat	-13148
▁Schach	-13149
▁Sharon	-13150
▁deuten	-13151
▁kennen	-13152
▁korrup	-13153
▁sauber	-13154
geworfen	-13155
▁Erträge	-13156
▁Hungary	-13157
▁Whether	-13158
▁Yeltsin	-13159
▁collect	-13160
▁missile	-13161
▁portfol	-13162
▁spectac	-13163
▁Partners	-13164
▁besonder	-13165
▁unweiger	-13166
▁geschafft	-13167
▁prominent	-13168
▁responded	-13169
▁successor	-13170
▁womöglich	-13171
▁gescheiter	-13172
▁irgendwann	-13173
▁irrelevant	-13174
▁popularity	-13175
▁betroffenen	-13176
▁persönliche	-13177
▁vernachläss	-13178
▁wirtschafts	-13179
▁Medikamenten	-13180
▁Tagesordnung	-13181
▁demokratisch	-13182
▁unterstützten	-13183
▁Diskriminierung	-13184
def	-13185
ruit	-13186
unal	-13187
▁fan	-13188
rence	-13189
▁Jose	-13190
▁burn	-13191
▁drag	-13192
▁unit	-13193
global	-13194
itudes	-13195
▁Linke	-13196
▁Three	-13197
▁unkon	-13198
▁Gazast	-13199
▁Linken	-13200
▁acting	-13201
▁ausgew	-13202
▁beding	-13203
▁declar	-13204
▁judges	-13205
▁openly	-13206
▁protes	-13207
▁stocks	-13208
▁unbest	-13209
schlagen	-13210
▁Misstra	-13211
▁bemühen	-13212
▁fashion	-13213
▁Überprü	-13214
kürzungen	-13215
▁Assembly	-13216
▁Bürokrat	-13217
▁Renditen	-13218
▁declined	-13219
▁hingegen	-13220
▁verboten	-13221
▁veränder	-13222
▁Höhepunkt	-13223
▁abgesehen	-13224
▁geblieben	-13225
▁offiziell	-13226
▁acceptable	-13227
▁undermined	-13228
▁Amerikanern	-13229
▁Befürworter	-13230
▁Hindernisse	-13231
▁functioning	-13232
▁übertrieben	-13233
▁interessiert	-13234
▁modernization	-13235
▁Nachhaltigkeit	-13236
▁Voraussetzungen	-13237
hel	-13238
▁75	-13239
▁TV	-13240
gibt	-13241
istr	-13242
king	-13243
▁Big	-13244
▁unn	-13245
▁किए	-13246
mittl	-13247
▁Zufl	-13248
▁blow	-13249
andten	-13250
gewiss	-13251
wiegen	-13252
▁Eisen	-13253
▁Taten	-13254
▁fails	-13255
▁genoc	-13256
▁iklim	-13257
▁sympt	-13258
verlust	-13259
▁glaube	-13260
▁sobald	-13261
▁sodass	-13262
▁voranz	-13263
▁आर्थिक	-13264
▁उत्पाद	-13265
▁English	-13266
▁Private	-13267
▁immense	-13268
▁neutral	-13269
▁patient	-13270
▁rightly	-13271
▁sharing	-13272
▁Regional	-13273
▁colonial	-13274
▁valuable	-13275
gressional	-13276
▁borrowers	-13277
▁equipment	-13278
▁inclusive	-13279
▁negotiate	-13280
▁redistrib	-13281
▁wenigsten	-13282
▁Industrial	-13283
▁Nobelpreis	-13284
▁maintained	-13285
▁retirement	-13286
▁schwierige	-13287
▁Verwaltungs	-13288
▁devastating	-13289
▁erheblichen	-13290
▁insufficient	-13291
▁surprisingly	-13292
▁Kommunikation	-13293
▁Versicherungs	-13294
▁beträchtliche	-13295
▁unterschiedlich	-13296
80	-13297
SB	-13298
ec	-13299
azif	-13300
stab	-13301
्याप	-13302
▁Bul	-13303
▁Dom	-13304
▁Hel	-13305
▁रही	-13306
beleb	-13307
conne	-13308
gener	-13309
laden	-13310
reise	-13311
▁Ebol	-13312
▁Free	-13313
▁Haft	-13314
▁सकते	-13315
igende	-13316
▁Arabs	-13317
▁Kennt	-13318
▁Mauer	-13319
▁aspir	-13320
▁types	-13321
▁Ärzte	-13322
greifen	-13323
▁Grunde	-13324
▁Saudis	-13325
▁Schiff	-13326
▁Spring	-13327
▁scheme	-13328
▁schwar	-13329
▁verzwe	-13330
▁wirken	-13331
agements	-13332
projekte	-13333
utreiben	-13334
▁fließen	-13335
▁selling	-13336
▁untergr	-13337
▁überein	-13338
▁downward	-13339
▁prognost	-13340
▁Disziplin	-13341
▁diversity	-13342
▁komplexen	-13343
▁presented	-13344
▁derjenigen	-13345
▁Brotherhood	-13346
▁vorherrschen	-13347
्स	-13348
Str	-13349
ski	-13350
▁6,	-13351
▁6.	-13352
aman	-13353
geht	-13354
meer	-13355
strö	-13356
ürzt	-13357
ाप्त	-13358
▁Sur	-13359
▁Web	-13360
▁cat	-13361
▁dog	-13362
itect	-13363
▁Halb	-13364
▁Mors	-13365
▁eins	-13366
▁gets	-13367
▁olig	-13368
korean	-13369
schten	-13370
▁Welle	-13371
▁jihad	-13372
▁night	-13373
esische	-13374
▁Bashar	-13375
▁Viktor	-13376
▁Werden	-13377
▁confir	-13378
▁prosec	-13379
▁safegu	-13380
apazität	-13381
eitigung	-13382
▁Nuclear	-13383
▁Solange	-13384
▁Version	-13385
▁erlaubt	-13386
▁gradual	-13387
▁distingu	-13388
▁offering	-13389
▁openness	-13390
▁Austausch	-13391
▁ausfallen	-13392
▁intention	-13393
▁protected	-13394
▁Konflikten	-13395
▁repression	-13396
▁technischen	-13397
▁consistently	-13398
▁ursprünglich	-13399
▁contributions	-13400
▁Lebensstandard	-13401
▁Weltbevölkerung	-13402
▁Weltwirtschafts	-13403
na	-13404
PEC	-13405
born	-13406
lein	-13407
ंत्र	-13408
▁avo	-13409
bulen	-13410
gespr	-13411
icism	-13412
lehen	-13413
olven	-13414
paket	-13415
▁Grem	-13416
▁pull	-13417
anteil	-13418
iously	-13419
trägen	-13420
wesens	-13421
▁Domin	-13422
control	-13423
▁Depart	-13424
▁nahmen	-13425
▁poorer	-13426
▁dritten	-13427
▁grounds	-13428
▁verfolg	-13429
▁anfällig	-13430
▁educated	-13431
▁gemessen	-13432
▁verkauft	-13433
▁Repräsent	-13434
▁haushalts	-13435
▁positiven	-13436
▁stabilize	-13437
▁advantages	-13438
▁aufrechter	-13439
▁nachhaltig	-13440
▁internationally	-13441
ky	-13442
ुल	-13443
zif	-13444
▁IP	-13445
▁ve	-13446
fakt	-13447
roat	-13448
ümer	-13449
▁Mob	-13450
▁yen	-13451
angeb	-13452
arten	-13453
being	-13454
parts	-13455
▁Erbe	-13456
▁Four	-13457
▁Marg	-13458
▁Nutz	-13459
▁blut	-13460
▁saud	-13461
▁spät	-13462
▁tour	-13463
▁town	-13464
▁Sachs	-13465
▁compr	-13466
▁expor	-13467
▁imped	-13468
▁künst	-13469
▁zieht	-13470
teuerung	-13471
▁Gefolge	-13472
▁sympath	-13473
▁wealthy	-13474
▁worried	-13475
▁accommod	-13476
▁betragen	-13477
▁freiwill	-13478
▁implicit	-13479
▁vehicles	-13480
▁ourselves	-13481
▁Aktivisten	-13482
▁perception	-13483
▁auseinander	-13484
▁represented	-13485
▁implementing	-13486
▁unterstützte	-13487
CT	-13488
▁Il	-13489
aill	-13490
ziel	-13491
▁Bay	-13492
▁रहे	-13493
▁वित	-13494
öhnen	-13495
▁Bhut	-13496
▁वाले	-13497
▁Assoc	-13498
▁Ebola	-13499
▁Ghana	-13500
▁Radik	-13501
▁Runde	-13502
▁Wesen	-13503
▁gutes	-13504
osevelt	-13505
▁Nichts	-13506
▁Senate	-13507
▁absorb	-13508
▁beider	-13509
▁inländ	-13510
▁mereka	-13511
▁retain	-13512
▁steckt	-13513
▁Denmark	-13514
▁Manager	-13515
▁avoided	-13516
▁backing	-13517
▁besitzt	-13518
▁riesige	-13519
▁earnings	-13520
▁Democracy	-13521
▁Keynesian	-13522
▁behindert	-13523
▁operating	-13524
▁einzugehen	-13525
▁discussions	-13526
▁undoubtedly	-13527
▁Führungsrolle	-13528
▁Konfrontation	-13529
▁aufstrebenden	-13530
▁extraordinary	-13531
▁Einschränkungen	-13532
Sah	-13533
▁ts	-13534
▁DPJ	-13535
▁Zim	-13536
eness	-13537
iente	-13538
krebs	-13539
ommon	-13540
ütern	-13541
▁Auto	-13542
▁Peru	-13543
▁Redu	-13544
▁loan	-13545
▁love	-13546
.&#160	-13547
abling	-13548
minded	-13549
ologen	-13550
▁2013,	-13551
▁Masch	-13552
▁Wahrn	-13553
▁coast	-13554
▁liter	-13555
▁seeks	-13556
▁steil	-13557
▁stets	-13558
arbeits	-13559
ictions	-13560
ukleare	-13561
▁Before	-13562
▁bemüht	-13563
▁donors	-13564
▁worsen	-13565
bildungs	-13566
qualität	-13567
▁Capital	-13568
▁Mindest	-13569
▁Popular	-13570
▁doppelt	-13571
▁schaden	-13572
▁visible	-13573
urteilung	-13574
▁forecast	-13575
▁delivered	-13576
▁similarly	-13577
▁Versorgung	-13578
▁anerkennen	-13579
▁atmosphere	-13580
▁beobachten	-13581
▁Nonetheless	-13582
▁involvement	-13583
▁Vorgehensweise	-13584
▁administrative	-13585
▁erforderlichen	-13586
▁technologischen	-13587
ोष	-13588
bry	-13589
ino	-13590
ras	-13591
ria	-13592
▁Ep	-13593
cend	-13594
्हें	-13595
▁Fal	-13596
▁Shi	-13597
▁WHO	-13598
arren	-13599
gemäß	-13600
itsch	-13601
aching	-13602
ostalg	-13603
passen	-13604
unting	-13605
▁2006,	-13606
▁guide	-13607
▁happy	-13608
örungen	-13609
▁Freund	-13610
▁Ostens	-13611
▁betrug	-13612
▁प्रभाव	-13613
ankungen	-13614
▁kapital	-13615
▁methods	-13616
scheinend	-13617
▁Maßnahme	-13618
▁Northern	-13619
▁globally	-13620
▁slightly	-13621
▁stellten	-13622
▁architect	-13623
▁aufgebaut	-13624
▁aufweisen	-13625
▁predicted	-13626
▁Ambitionen	-13627
▁Hoffnungen	-13628
▁impressive	-13629
▁sicherlich	-13630
▁umstritten	-13631
▁Beseitigung	-13632
▁bilateralen	-13633
▁Flexibilität	-13634
▁stabilisieren	-13635
▁Geschwindigkeit	-13636
aby	-13637
san	-13638
sum	-13639
दान	-13640
ियन	-13641
#160	-13642
aise	-13643
arus	-13644
ereg	-13645
mitt	-13646
omas	-13647
roph	-13648
usch	-13649
xper	-13650
ügel	-13651
▁Fil	-13652
▁Wah	-13653
grade	-13654
ilibr	-13655
▁Each	-13656
▁Gore	-13657
abinet	-13658
erving	-13659
pricht	-13660
▁Alban	-13661
▁Group	-13662
▁Morsi	-13663
▁conce	-13664
▁irres	-13665
▁moves	-13666
▁saved	-13667
bindung	-13668
krieges	-13669
oration	-13670
ugoslaw	-13671
▁Import	-13672
▁afghan	-13673
▁folgte	-13674
▁raises	-13675
▁steuer	-13676
▁Kontext	-13677
▁Stunden	-13678
▁illness	-13679
▁lasting	-13680
▁tragedy	-13681
▁written	-13682
▁Branchen	-13683
▁Kolonial	-13684
▁dieselbe	-13685
▁gegangen	-13686
▁measured	-13687
▁Jordanien	-13688
▁Veröffent	-13689
▁behandeln	-13690
▁Diejenigen	-13691
▁Teilnehmer	-13692
▁background	-13693
▁Bedürfnisse	-13694
▁angemessene	-13695
▁engineering	-13696
▁participate	-13697
▁Gesundheitss	-13698
▁Befürchtungen	-13699
▁privatization	-13700
isi	-13701
ubs	-13702
▁अव	-13703
aven	-13704
▁...	-13705
dable	-13706
käufe	-13707
▁Sohn	-13708
▁situ	-13709
▁होगा	-13710
▁Summe	-13711
▁White	-13712
▁besar	-13713
▁deleg	-13714
▁hoped	-13715
▁solid	-13716
amerika	-13717
▁Recent	-13718
▁andern	-13719
▁erschw	-13720
▁pessim	-13721
▁umfass	-13722
▁Romania	-13723
▁capture	-13724
▁einseit	-13725
▁greatly	-13726
▁stimmen	-13727
▁bevorzug	-13728
▁letztend	-13729
ituationen	-13730
▁Expansion	-13731
▁Roosevelt	-13732
▁carefully	-13733
▁deutliche	-13734
▁türkische	-13735
▁effektiver	-13736
▁Erklärungen	-13737
▁acknowledge	-13738
▁ermöglichte	-13739
▁Einwanderung	-13740
▁bemerkenswert	-13741
▁Friedensprozess	-13742
▁Protektionismus	-13743
EU	-13744
Gr	-13745
गर	-13746
ील	-13747
zep	-13748
hart	-13749
rown	-13750
verw	-13751
▁Bre	-13752
▁Eis	-13753
▁ung	-13754
omics	-13755
oning	-13756
▁Balt	-13757
▁Film	-13758
▁Rent	-13759
▁door	-13760
▁epis	-13761
▁nutz	-13762
▁stor	-13763
▁करते	-13764
zinsen	-13765
▁Again	-13766
▁Kerry	-13767
▁champ	-13768
▁sorgt	-13769
samkeit	-13770
tending	-13771
▁Abschw	-13772
▁dangers	-13773
weisungen	-13774
▁Phänomen	-13775
▁Sunniten	-13776
▁bewahren	-13777
▁boosting	-13778
▁complain	-13779
zugleichen	-13780
▁Beitritts	-13781
▁Vorgänger	-13782
▁extremism	-13783
▁intervene	-13784
▁regarding	-13785
▁Bekenntnis	-13786
▁Department	-13787
▁foundation	-13788
▁Konsumenten	-13789
▁Mechanismus	-13790
▁achievement	-13791
▁expenditure	-13792
▁experiences	-13793
▁produzieren	-13794
beschäftigung	-13795
▁verpflichten	-13796
ेट	-13797
▁5.	-13798
▁CD	-13799
▁IT	-13800
chst	-13801
üßen	-13802
▁Def	-13803
▁God	-13804
▁tas	-13805
agert	-13806
artig	-13807
oping	-13808
्रीका	-13809
▁Face	-13810
▁Koal	-13811
▁Krug	-13812
▁Myth	-13813
▁Takt	-13814
▁aims	-13815
▁gern	-13816
▁iron	-13817
mangel	-13818
schens	-13819
▁BRICS	-13820
▁Earth	-13821
▁Keine	-13822
▁Woods	-13823
▁Worte	-13824
▁beruh	-13825
▁lacks	-13826
▁match	-13827
andinav	-13828
ugoslav	-13829
verläss	-13830
▁Feinde	-13831
▁Folter	-13832
▁Volkes	-13833
▁dispar	-13834
▁ausgepr	-13835
▁consult	-13836
▁enabled	-13837
▁separat	-13838
Mitglieds	-13839
▁deposits	-13840
▁division	-13841
▁doctrine	-13842
▁features	-13843
▁resolved	-13844
▁erkennbar	-13845
▁justified	-13846
▁threatens	-13847
orientierte	-13848
▁Extremismus	-13849
ago	-13850
रूर	-13851
aire	-13852
bted	-13853
▁Tok	-13854
▁pem	-13855
▁भार	-13856
basis	-13857
leute	-13858
uscht	-13859
uster	-13860
श्विक	-13861
▁Koiz	-13862
▁NGOs	-13863
▁Verg	-13864
▁abst	-13865
▁exem	-13866
▁frem	-13867
▁gäbe	-13868
▁पहले	-13869
ehmung	-13870
etting	-13871
losion	-13872
▁Block	-13873
▁Panik	-13874
▁gebil	-13875
ündeten	-13876
▁Gordon	-13877
▁Weiter	-13878
▁betont	-13879
▁Provinz	-13880
▁machten	-13881
▁unterst	-13882
politiker	-13883
▁convince	-13884
▁globales	-13885
▁manifest	-13886
▁multiple	-13887
▁properly	-13888
▁reliable	-13889
▁Abschluss	-13890
▁betreiben	-13891
▁destroyed	-13892
▁staatlich	-13893
▁succeeded	-13894
▁triggered	-13895
▁Umstruktur	-13896
▁assessment	-13897
▁definition	-13898
▁identified	-13899
▁prosperous	-13900
▁bedeutenden	-13901
▁innovations	-13902
▁ägyptischen	-13903
▁Bruttoinland	-13904
▁Zwischenzeit	-13905
▁concentrated	-13906
▁counterparts	-13907
▁overwhelming	-13908
UR	-13909
Pal	-13910
inks	-13911
▁CIA	-13912
▁cul	-13913
▁Acht	-13914
▁Kuba	-13915
▁shut	-13916
▁uses	-13917
▁अर्थ	-13918
▁केवल	-13919
ipping	-13920
▁2003,	-13921
▁Gebur	-13922
▁Indik	-13923
▁Insel	-13924
▁Nixon	-13925
▁Polic	-13926
▁dapat	-13927
agerung	-13928
itische	-13929
risiken	-13930
ultural	-13931
▁Symbol	-13932
▁argues	-13933
▁benach	-13934
▁bewegt	-13935
▁endors	-13936
▁retail	-13937
▁werfen	-13938
chterung	-13939
zuhalten	-13940
▁Schäden	-13941
▁ethical	-13942
▁genannt	-13943
▁suicide	-13944
▁Dänemark	-13945
▁Kulturen	-13946
▁erfolgen	-13947
▁mathemat	-13948
▁mobility	-13949
▁Agreement	-13950
▁abandoned	-13951
versammlung	-13952
▁Industrien	-13953
▁imperative	-13954
▁Anpassungen	-13955
▁Wertpapiere	-13956
▁researchers	-13957
▁erfolgreichen	-13958
ARC	-13959
tax	-13960
adig	-13961
arme	-13962
itte	-13963
jadi	-13964
ährt	-13965
रूरत	-13966
ेरिक	-13967
▁Get	-13968
▁fla	-13969
▁sad	-13970
aling	-13971
ammad	-13972
daten	-13973
organ	-13974
place	-13975
sorge	-13976
think	-13977
द्योग	-13978
▁Chen	-13979
▁Haup	-13980
▁Prov	-13981
▁erad	-13982
▁fern	-13983
▁myth	-13984
▁nerv	-13985
▁unst	-13986
▁vorn	-13987
beding	-13988
ussels	-13989
▁anzup	-13990
▁dahin	-13991
▁deals	-13992
▁repay	-13993
▁surge	-13994
elihood	-13995
laubens	-13996
▁School	-13997
▁infect	-13998
▁resent	-13999
schiedet	-14000
▁Quellen	-14001
▁Tschech	-14002
▁Verkehr	-14003
▁picture	-14004
▁Alliance	-14005
▁Umstände	-14006
▁finances	-14007
▁indirect	-14008
▁limiting	-14009
▁radikale	-14010
▁taxation	-14011
▁wirksame	-14012
▁ethnische	-14013
▁mittleren	-14014
▁verhalten	-14015
▁coordinated	-14016
▁ernsthaften	-14017
▁progressive	-14018
OM	-14019
ोक	-14020
mot	-14021
sky	-14022
ürt	-14023
▁$7	-14024
▁Lo	-14025
body	-14026
ehow	-14027
ührt	-14028
▁Ehr	-14029
▁eye	-14030
▁spl	-14031
itime	-14032
▁pill	-14033
aments	-14034
border	-14035
ivalen	-14036
region	-14037
▁Netto	-14038
▁Sport	-14039
▁books	-14040
▁guard	-14041
▁hohem	-14042
mittelt	-14043
▁analog	-14044
▁caught	-14045
▁elektr	-14046
▁honest	-14047
▁öffnen	-14048
bulenzen	-14049
orrektur	-14050
▁begünst	-14051
▁ministr	-14052
▁outlook	-14053
▁refugee	-14054
▁starker	-14055
▁undersc	-14056
▁वैश्विक	-14057
▁momentum	-14058
▁parallel	-14059
▁pressing	-14060
▁qualifiz	-14061
▁ungewöhn	-14062
terhaltung	-14063
▁obviously	-14064
▁prolonged	-14065
▁Übernahme	-14066
▁festgelegt	-14067
▁mainstream	-14068
▁purchasing	-14069
▁struggling	-14070
orientierten	-14071
▁Furthermore	-14072
▁Widerstands	-14073
▁ökonomische	-14074
▁Konzentration	-14075
▁Inflationsrate	-14076
▁Privatisierung	-14077
▁Vereinbarungen	-14078
pa	-14079
ोप	-14080
kel	-14081
loc	-14082
▁आव	-14083
Russ	-14084
क्षा	-14085
rency	-14086
▁Mitt	-14087
▁didn	-14088
▁pick	-14089
archie	-14090
klasse	-14091
ocracy	-14092
uropas	-14093
▁Kateg	-14094
▁Start	-14095
▁brief	-14096
▁draft	-14097
▁noted	-14098
▁tiefe	-14099
oleranz	-14100
▁Bomben	-14101
▁Polish	-14102
▁forese	-14103
▁impliz	-14104
▁meinem	-14105
▁memory	-14106
▁unrest	-14107
▁Lektion	-14108
▁deposit	-14109
▁enttäus	-14110
▁erkennt	-14111
▁indigen	-14112
▁stammen	-14113
▁überprü	-14114
derschaft	-14115
▁privater	-14116
▁psychiat	-14117
▁Consensus	-14118
▁derartiges	-14119
▁reductions	-14120
▁Partnership	-14121
▁einzuführen	-14122
▁niedrigeren	-14123
indlichkeiten	-14124
Mitgliedschaft	-14125
▁verabschiedet	-14126
▁Gesamtnachfrage	-14127
SR	-14128
fel	-14129
obb	-14130
irds	-14131
lude	-14132
▁HAV	-14133
aders	-14134
्यादा	-14135
▁Gefü	-14136
▁dign	-14137
▁meny	-14138
icians	-14139
petenz	-14140
ranean	-14141
recher	-14142
unkten	-14143
▁Smith	-14144
isation	-14145
langsam	-14146
▁Gandhi	-14147
▁Zielen	-14148
▁Zurück	-14149
▁belong	-14150
▁listen	-14151
Kongress	-14152
atilität	-14153
▁Beamten	-14154
▁Through	-14155
▁beschäd	-14156
▁bolster	-14157
▁continu	-14158
▁forcing	-14159
▁gaining	-14160
▁planned	-14161
▁suspect	-14162
▁Glaubens	-14163
▁Rebellen	-14164
▁Tragödie	-14165
▁aufgeben	-14166
▁diagnost	-14167
▁sorgfält	-14168
▁Hindernis	-14169
▁governing	-14170
▁involving	-14171
▁Hauptstadt	-14172
▁etablieren	-14173
▁interested	-14174
▁transatlant	-14175
▁Kreditnehmer	-14176
▁Vorstellungen	-14177
▁proliferation	-14178
▁transnational	-14179
▁pakistanischen	-14180
रा	-14181
Ind	-14182
soc	-14183
van	-14184
▁($	-14185
▁Jel	-14186
▁Lee	-14187
▁bip	-14188
akter	-14189
menge	-14190
▁erwä	-14191
▁film	-14192
decken	-14193
ervice	-14194
iences	-14195
othing	-14196
▁Cyber	-14197
▁Jemen	-14198
▁numer	-14199
▁panic	-14200
develop	-14201
version	-14202
▁Befrei	-14203
▁Draghi	-14204
▁Fakten	-14205
▁fanden	-14206
▁sofern	-14207
▁trials	-14208
▁troubl	-14209
▁अमेरिक	-14210
mischung	-14211
stellbar	-14212
▁betreff	-14213
▁feeling	-14214
▁fordert	-14215
▁fortsch	-14216
▁radikal	-14217
▁welchem	-14218
übergreif	-14219
▁Militärs	-14220
▁Optionen	-14221
▁Personal	-14222
▁invested	-14223
▁missiles	-14224
▁oligarch	-14225
▁purposes	-14226
▁Absichten	-14227
▁Antworten	-14228
▁Massenver	-14229
▁Offenheit	-14230
▁benefited	-14231
▁produktiv	-14232
▁recommend	-14233
▁Arabischen	-14234
▁Selbstmord	-14235
▁diskutiert	-14236
▁regionaler	-14237
▁diskutieren	-14238
▁unweigerlich	-14239
▁characterized	-14240
”)	-14241
ocal	-14242
odes	-14243
▁Out	-14244
▁Sah	-14245
▁dip	-14246
▁gem	-14247
▁lit	-14248
andte	-14249
ashed	-14250
eland	-14251
endem	-14252
lined	-14253
ungsk	-14254
zieht	-14255
▁$100	-14256
▁Aben	-14257
▁corr	-14258
▁merk	-14259
künfte	-14260
porten	-14261
öhnung	-14262
▁Autom	-14263
▁HAVEN	-14264
▁einig	-14265
▁false	-14266
▁hedge	-14267
▁imply	-14268
▁north	-14269
▁phase	-14270
▁schön	-14271
▁seats	-14272
▁stimm	-14273
▁महत्व	-14274
astrous	-14275
fertigt	-14276
▁Banker	-14277
▁Händen	-14278
▁expans	-14279
▁exzess	-14280
election	-14281
▁Mediter	-14282
▁Monopol	-14283
▁Schocks	-14284
▁blieben	-14285
▁verknüp	-14286
nichtungs	-14287
wesenheit	-14288
▁Finanzen	-14289
▁Stimmung	-14290
▁falschen	-14291
▁genügend	-14292
▁meetings	-14293
▁patterns	-14294
▁Belastung	-14295
▁Islamists	-14296
▁geringere	-14297
▁gewachsen	-14298
▁anzunehmen	-14299
▁assumption	-14300
▁derzeitige	-14301
▁disastrous	-14302
▁facilitate	-14303
▁finanziell	-14304
▁islamische	-14305
▁schrumpfen	-14306
▁Österreich	-14307
▁Corporation	-14308
▁Zahlungsaus	-14309
▁bezeichnete	-14310
▁kohlenstoff	-14311
▁Untersuchungen	-14312
▁Steuereinnahmen	-14313
Te	-14314
था	-14315
ete	-14316
▁Us	-14317
asan	-14318
owed	-14319
äfen	-14320
▁FDI	-14321
▁Inc	-14322
▁Umw	-14323
▁पड़	-14324
▁मान	-14325
opard	-14326
yklus	-14327
zahlt	-14328
▁Back	-14329
▁Empf	-14330
▁Orte	-14331
▁gene	-14332
▁pose	-14333
▁sequ	-14334
brüche	-14335
sprach	-14336
werben	-14337
▁check	-14338
▁glück	-14339
▁reden	-14340
▁stood	-14341
iations	-14342
wachsen	-14343
▁Furcht	-14344
▁Größen	-14345
▁rasche	-14346
gehenden	-14347
ichtlich	-14348
▁Anleihe	-14349
▁Brüssel	-14350
▁display	-14351
▁sichere	-14352
communist	-14353
▁Aufsicht	-14354
▁Berichte	-14355
▁generous	-14356
▁proclaim	-14357
▁vielfach	-14358
▁ergriffen	-14359
▁liegenden	-14360
▁newspaper	-14361
▁renewable	-14362
▁Definition	-14363
▁Gouverneur	-14364
▁Völkermord	-14365
▁geschwächt	-14366
▁phenomenon	-14367
▁challenging	-14368
▁gegenseitig	-14369
▁Durchsetzung	-14370
▁verschwinden	-14371
▁quantitativen	-14372
“)	-14373
▁о	-14374
Ger	-14375
Ich	-14376
had	-14377
ram	-14378
sup	-14379
ömm	-14380
▁ta	-14381
▁थी	-14382
chtz	-14383
roll	-14384
▁Gut	-14385
▁Rog	-14386
▁hem	-14387
▁nov	-14388
▁लाभ	-14389
bares	-14390
elung	-14391
▁Neue	-14392
▁beib	-14393
▁male	-14394
▁onto	-14395
▁लक्ष	-14396
▁kreat	-14397
▁tritt	-14398
üchtern	-14399
▁abuses	-14400
▁breite	-14401
▁gewann	-14402
▁slower	-14403
▁zugute	-14404
sprodukt	-14405
▁Aussage	-14406
▁Kanzler	-14407
▁careful	-14408
▁geboren	-14409
▁weather	-14410
konferenz	-14411
pretation	-14412
▁Gegenzug	-14413
▁Kandidat	-14414
▁Zimbabwe	-14415
▁aussehen	-14416
▁estimate	-14417
▁explains	-14418
▁schwerer	-14419
▁superior	-14420
änderungen	-14421
▁Herrscher	-14422
▁wünschens	-14423
technologie	-14424
zufriedenheit	-14425
▁Erkenntnisse	-14426
▁zurückkehren	-14427
▁interventions	-14428
▁relationships	-14429
▁sicherstellen	-14430
-9	-14431
FSF	-14432
aro	-14433
ota	-14434
▁Dr	-14435
eing	-14436
erei	-14437
ihen	-14438
osop	-14439
wait	-14440
▁विश	-14441
party	-14442
trieb	-14443
▁Jint	-14444
▁Sand	-14445
▁lend	-14446
Israel	-14447
ausend	-14448
rungen	-14449
ughter	-14450
▁coher	-14451
▁radio	-14452
▁Ersatz	-14453
▁Thomas	-14454
▁agency	-14455
▁celebr	-14456
▁fought	-14457
▁headed	-14458
▁langer	-14459
▁ratios	-14460
▁warned	-14461
legungen	-14462
▁Aufrech	-14463
▁Komplex	-14464
▁aspects	-14465
▁pointed	-14466
▁release	-14467
▁vorange	-14468
▁Brussels	-14469
▁Protocol	-14470
▁attitude	-14471
▁enabling	-14472
▁gefangen	-14473
▁geholfen	-14474
▁genocide	-14475
▁imposing	-14476
▁nukleare	-14477
▁orthodox	-14478
▁Netanjahu	-14479
▁Schuldner	-14480
▁confident	-14481
▁schnellen	-14482
▁Regelungen	-14483
▁steigender	-14484
▁überraschen	-14485
▁depreciation	-14486
▁significance	-14487
▁transactions	-14488
ंप	-14489
Aus	-14490
but	-14491
iol	-14492
kat	-14493
uzz	-14494
िला	-14495
▁ST	-14496
genz	-14497
ston	-14498
रिया	-14499
▁Int	-14500
▁MOS	-14501
▁Yuk	-14502
▁mex	-14503
esses	-14504
human	-14505
lehnt	-14506
orary	-14507
öpfen	-14508
▁Dmit	-14509
▁null	-14510
gefühl	-14511
▁Among	-14512
▁Dereg	-14513
▁Funkt	-14514
▁Index	-14515
▁Osama	-14516
▁Sympt	-14517
▁cease	-14518
▁entry	-14519
▁innoc	-14520
▁synth	-14521
▁विश्व	-14522
iologie	-14523
osition	-14524
währung	-14525
ziehung	-14526
▁Mugabe	-14527
▁Summit	-14528
▁Zwangs	-14529
▁großem	-14530
▁tiefen	-14531
▁Krugman	-14532
▁asymmet	-14533
▁entlang	-14534
▁partial	-14535
▁pursuit	-14536
▁stürzen	-14537
▁vielver	-14538
▁gedrängt	-14539
▁gewählte	-14540
▁monopoly	-14541
▁verteilt	-14542
ikanischer	-14543
▁advocates	-14544
▁besondere	-14545
▁gefordert	-14546
▁mangelnde	-14547
▁materials	-14548
▁obstacles	-14549
▁auszugeben	-14550
▁compelling	-14551
▁reputation	-14552
koreanischen	-14553
▁Ergebnissen	-14554
▁catastrophe	-14555
▁hochentwick	-14556
▁inflationary	-14557
▁Arbeitskräften	-14558
▁Finanzinstitute	-14559
च्	-14560
ael	-14561
cur	-14562
▁5,	-14563
▁Ev	-14564
bahn	-14565
hnte	-14566
kter	-14567
leid	-14568
riar	-14569
▁LDP	-14570
▁Tea	-14571
▁bid	-14572
riebe	-14573
ubled	-14574
▁Arch	-14575
▁IPCC	-14576
▁Plat	-14577
▁date	-14578
▁jahr	-14579
▁runs	-14580
▁होता	-14581
gelder	-14582
▁Abzug	-14583
▁Henry	-14584
▁embar	-14585
▁honor	-14586
▁lived	-14587
▁relev	-14588
Saharan	-14589
arismus	-14590
stellte	-14591
▁Eindäm	-14592
▁deutet	-14593
▁fellow	-14594
▁fields	-14595
▁shadow	-14596
▁unklar	-14597
erkennen	-14598
ilibrium	-14599
lamentar	-14600
▁Senator	-14601
▁Twitter	-14602
▁erheben	-14603
▁kompliz	-14604
▁starkes	-14605
▁tactics	-14606
igerweise	-14607
zeichnung	-14608
▁Facebook	-14609
▁Rechnung	-14610
▁Yugoslav	-14611
▁approved	-14612
▁financed	-14613
▁folgende	-14614
▁hervorge	-14615
▁realized	-14616
▁sichtbar	-14617
strukturen	-14618
▁Abschreck	-14619
▁ständigen	-14620
▁Missbrauch	-14621
▁Nordkoreas	-14622
▁Stillstand	-14623
▁allmählich	-14624
▁angefangen	-14625
▁politician	-14626
▁procedures	-14627
▁übermäßige	-14628
▁Wirksamkeit	-14629
▁Mediterranean	-14630
[...]
